{
  "version": "1.0",
  "truncation": null,
  "padding": null,
  "added_tokens": [
    {
      "id": 0,
      "special": true,
      "content": "[UNK]",
      "single_word": false,
      "lstrip": false,
      "rstrip": false,
      "normalized": false
    },
    {
      "id": 1,
      "special": true,
      "content": "[MASK]",
      "single_word": false,
      "lstrip": false,
      "rstrip": false,
      "normalized": false
    },
    {
      "id": 2,
      "special": true,
      "content": "[CLS]",
      "single_word": false,
      "lstrip": false,
      "rstrip": false,
      "normalized": false
    },
    {
      "id": 3,
      "special": true,
      "content": "[SEQ]",
      "single_word": false,
      "lstrip": false,
      "rstrip": false,
      "normalized": false
    }
  ],
  "normalizer": {
    "type": "Sequence",
    "normalizers": [
      {
        "type": "Nmt"
      },
      {
        "type": "NFKC"
      },
      {
        "type": "Replace",
        "pattern": {
          "Regex": " {2,}"
        },
        "content": " "
      }
    ]
  },
  "pre_tokenizer": {
    "type": "Sequence",
    "pretokenizers": [
      {
        "type": "WhitespaceSplit"
      },
      {
        "type": "Split",
        "pattern": {
          "Regex": "\\d"
        },
        "behavior": "MergedWithPrevious",
        "invert": false
      },
      {
        "type": "Punctuation"
      }
    ]
  },
  "post_processor": {
    "type": "TemplateProcessing",
    "single": [
      {
        "SpecialToken": {
          "id": "[CLS]",
          "type_id": 0
        }
      },
      {
        "Sequence": {
          "id": "A",
          "type_id": 0
        }
      },
      {
        "SpecialToken": {
          "id": "[SEQ]",
          "type_id": 0
        }
      }
    ],
    "pair": [
      {
        "SpecialToken": {
          "id": "[CLS]",
          "type_id": 0
        }
      },
      {
        "Sequence": {
          "id": "A",
          "type_id": 0
        }
      },
      {
        "SpecialToken": {
          "id": "[SEQ]",
          "type_id": 0
        }
      },
      {
        "Sequence": {
          "id": "B",
          "type_id": 1
        }
      },
      {
        "SpecialToken": {
          "id": "[SEQ]",
          "type_id": 1
        }
      }
    ],
    "special_tokens": {
      "[CLS]": {
        "id": "[CLS]",
        "ids": [
          1
        ],
        "tokens": [
          "[CLS]"
        ]
      },
      "[SEQ]": {
        "id": "[SEQ]",
        "ids": [
          2
        ],
        "tokens": [
          "[SEQ]"
        ]
      }
    }
  },
  "decoder": {
    "type": "WordPiece",
    "prefix": "##",
    "cleanup": true
  },
  "model": {
    "type": "WordPiece",
    "unk_token": "[UNK]",
    "continuing_subword_prefix": "##",
    "max_input_chars_per_word": 100,
    "vocab": {
      "[UNK]": 0,
      "[MASK]": 1,
      "[CLS]": 2,
      "[SEQ]": 3,
      "!": 4,
      "\"": 5,
      "#": 6,
      "$": 7,
      "%": 8,
      "&": 9,
      "'": 10,
      "(": 11,
      ")": 12,
      "*": 13,
      "+": 14,
      ",": 15,
      "-": 16,
      ".": 17,
      "/": 18,
      "0": 19,
      "1": 20,
      "2": 21,
      "3": 22,
      "4": 23,
      "5": 24,
      "6": 25,
      "7": 26,
      "8": 27,
      "9": 28,
      ":": 29,
      ";": 30,
      "=": 31,
      "?": 32,
      "@": 33,
      "A": 34,
      "B": 35,
      "C": 36,
      "D": 37,
      "E": 38,
      "F": 39,
      "G": 40,
      "H": 41,
      "I": 42,
      "J": 43,
      "K": 44,
      "L": 45,
      "M": 46,
      "N": 47,
      "O": 48,
      "P": 49,
      "Q": 50,
      "R": 51,
      "S": 52,
      "T": 53,
      "U": 54,
      "V": 55,
      "W": 56,
      "X": 57,
      "Y": 58,
      "Z": 59,
      "[": 60,
      "\\": 61,
      "]": 62,
      "^": 63,
      "_": 64,
      "`": 65,
      "a": 66,
      "b": 67,
      "c": 68,
      "d": 69,
      "e": 70,
      "f": 71,
      "g": 72,
      "h": 73,
      "i": 74,
      "j": 75,
      "k": 76,
      "l": 77,
      "m": 78,
      "n": 79,
      "o": 80,
      "p": 81,
      "q": 82,
      "r": 83,
      "s": 84,
      "t": 85,
      "u": 86,
      "v": 87,
      "w": 88,
      "x": 89,
      "y": 90,
      "z": 91,
      "{": 92,
      "|": 93,
      "}": 94,
      "~": 95,
      "": 96,
      "": 97,
      "": 98,
      "": 99,
      "": 100,
      "": 101,
      "": 102,
      "": 103,
      "¡": 104,
      "¢": 105,
      "£": 106,
      "¤": 107,
      "¥": 108,
      "¦": 109,
      "§": 110,
      "©": 111,
      "«": 112,
      "¬": 113,
      "­": 114,
      "®": 115,
      "°": 116,
      "±": 117,
      "¶": 118,
      "·": 119,
      "»": 120,
      "¿": 121,
      "À": 122,
      "Á": 123,
      "Â": 124,
      "Ã": 125,
      "Ä": 126,
      "Å": 127,
      "Æ": 128,
      "Ç": 129,
      "È": 130,
      "É": 131,
      "Ê": 132,
      "Ë": 133,
      "Ì": 134,
      "Í": 135,
      "Î": 136,
      "Ï": 137,
      "Ð": 138,
      "Ñ": 139,
      "Ò": 140,
      "Ó": 141,
      "Ô": 142,
      "Õ": 143,
      "Ö": 144,
      "×": 145,
      "Ø": 146,
      "Ù": 147,
      "Ú": 148,
      "Û": 149,
      "Ü": 150,
      "Ý": 151,
      "Þ": 152,
      "ß": 153,
      "à": 154,
      "á": 155,
      "â": 156,
      "ã": 157,
      "ä": 158,
      "å": 159,
      "æ": 160,
      "ç": 161,
      "è": 162,
      "é": 163,
      "ê": 164,
      "ë": 165,
      "ì": 166,
      "í": 167,
      "î": 168,
      "ï": 169,
      "ð": 170,
      "ñ": 171,
      "ò": 172,
      "ó": 173,
      "ô": 174,
      "õ": 175,
      "ö": 176,
      "÷": 177,
      "ø": 178,
      "ù": 179,
      "ú": 180,
      "û": 181,
      "ü": 182,
      "ý": 183,
      "þ": 184,
      "ÿ": 185,
      "Ā": 186,
      "ā": 187,
      "Ă": 188,
      "ă": 189,
      "Ą": 190,
      "ą": 191,
      "Ć": 192,
      "ć": 193,
      "Ĉ": 194,
      "ĉ": 195,
      "Ċ": 196,
      "ċ": 197,
      "Č": 198,
      "č": 199,
      "Ď": 200,
      "ď": 201,
      "Đ": 202,
      "đ": 203,
      "Ē": 204,
      "ē": 205,
      "Ĕ": 206,
      "ĕ": 207,
      "Ė": 208,
      "ė": 209,
      "Ę": 210,
      "ę": 211,
      "Ě": 212,
      "ě": 213,
      "Ĝ": 214,
      "ĝ": 215,
      "Ğ": 216,
      "ğ": 217,
      "Ġ": 218,
      "ġ": 219,
      "Ģ": 220,
      "ģ": 221,
      "Ĥ": 222,
      "ĥ": 223,
      "Ħ": 224,
      "ħ": 225,
      "Ĩ": 226,
      "ĩ": 227,
      "Ī": 228,
      "ī": 229,
      "ĭ": 230,
      "Į": 231,
      "į": 232,
      "İ": 233,
      "ı": 234,
      "Ĵ": 235,
      "ĵ": 236,
      "Ķ": 237,
      "ķ": 238,
      "ĸ": 239,
      "Ĺ": 240,
      "ĺ": 241,
      "Ļ": 242,
      "ļ": 243,
      "Ľ": 244,
      "ľ": 245,
      "Ł": 246,
      "ł": 247,
      "Ń": 248,
      "ń": 249,
      "Ņ": 250,
      "ņ": 251,
      "Ň": 252,
      "ň": 253,
      "Ŋ": 254,
      "ŋ": 255,
      "Ō": 256,
      "ō": 257,
      "Ŏ": 258,
      "ŏ": 259,
      "Ő": 260,
      "ő": 261,
      "Œ": 262,
      "œ": 263,
      "Ŕ": 264,
      "ŕ": 265,
      "ŗ": 266,
      "Ř": 267,
      "ř": 268,
      "Ś": 269,
      "ś": 270,
      "Ŝ": 271,
      "ŝ": 272,
      "Ş": 273,
      "ş": 274,
      "Š": 275,
      "š": 276,
      "Ţ": 277,
      "ţ": 278,
      "Ť": 279,
      "ť": 280,
      "Ŧ": 281,
      "ŧ": 282,
      "Ũ": 283,
      "ũ": 284,
      "Ū": 285,
      "ū": 286,
      "Ŭ": 287,
      "ŭ": 288,
      "Ů": 289,
      "ů": 290,
      "Ű": 291,
      "ű": 292,
      "ų": 293,
      "Ŵ": 294,
      "ŵ": 295,
      "ŷ": 296,
      "Ÿ": 297,
      "Ź": 298,
      "ź": 299,
      "Ż": 300,
      "ż": 301,
      "Ž": 302,
      "ž": 303,
      "ƀ": 304,
      "Ɔ": 305,
      "ƈ": 306,
      "Ɖ": 307,
      "Ǝ": 308,
      "Ə": 309,
      "ƒ": 310,
      "Ɨ": 311,
      "ƙ": 312,
      "ƛ": 313,
      "ơ": 314,
      "Ƣ": 315,
      "ƣ": 316,
      "ư": 317,
      "ƴ": 318,
      "Ƶ": 319,
      "ƶ": 320,
      "Ʒ": 321,
      "ƿ": 322,
      "ǀ": 323,
      "ǁ": 324,
      "ǂ": 325,
      "ǃ": 326,
      "ǎ": 327,
      "ǐ": 328,
      "ǒ": 329,
      "ǔ": 330,
      "ǚ": 331,
      "ǜ": 332,
      "ǝ": 333,
      "Ǟ": 334,
      "ǟ": 335,
      "ǣ": 336,
      "ǥ": 337,
      "Ǧ": 338,
      "ǧ": 339,
      "Ǩ": 340,
      "ǩ": 341,
      "Ǫ": 342,
      "ǫ": 343,
      "Ǯ": 344,
      "ǯ": 345,
      "ǰ": 346,
      "Ǵ": 347,
      "ǵ": 348,
      "Ƿ": 349,
      "ǻ": 350,
      "ǽ": 351,
      "Ǿ": 352,
      "ǿ": 353,
      "Ȁ": 354,
      "ȁ": 355,
      "Ȅ": 356,
      "ȅ": 357,
      "Ȉ": 358,
      "ȉ": 359,
      "Ȍ": 360,
      "ȍ": 361,
      "ȏ": 362,
      "Ȑ": 363,
      "ȑ": 364,
      "Ȕ": 365,
      "ȕ": 366,
      "Ș": 367,
      "ș": 368,
      "Ț": 369,
      "ț": 370,
      "Ȝ": 371,
      "ȝ": 372,
      "ȟ": 373,
      "ȯ": 374,
      "ȳ": 375,
      "Ⱥ": 376,
      "Ƀ": 377,
      "Ʌ": 378,
      "ɣ": 379,
      "ʕ": 380,
      "ʹ": 381,
      "ʻ": 382,
      "ʼ": 383,
      "ʽ": 384,
      "ʾ": 385,
      "ʿ": 386,
      "ˀ": 387,
      "ˁ": 388,
      "ˆ": 389,
      "ˇ": 390,
      "ˈ": 391,
      "ˊ": 392,
      "ˌ": 393,
      "ː": 394,
      "˧": 395,
      "˨": 396,
      "ˮ": 397,
      "́": 398,
      "̃": 399,
      "̄": 400,
      "̆": 401,
      "̇": 402,
      "̈": 403,
      "̊": 404,
      "̋": 405,
      "̧": 406,
      "̨": 407,
      "μ": 408,
      "א": 409,
      "ḅ": 410,
      "Ḉ": 411,
      "ḉ": 412,
      "ḋ": 413,
      "Ḍ": 414,
      "ḍ": 415,
      "Ḏ": 416,
      "ḏ": 417,
      "Ḑ": 418,
      "ḑ": 419,
      "ḓ": 420,
      "ḕ": 421,
      "ḗ": 422,
      "ḛ": 423,
      "ḡ": 424,
      "Ḥ": 425,
      "ḥ": 426,
      "Ḧ": 427,
      "ḧ": 428,
      "Ḩ": 429,
      "ḩ": 430,
      "Ḫ": 431,
      "ḫ": 432,
      "ḯ": 433,
      "Ḱ": 434,
      "ḱ": 435,
      "Ḳ": 436,
      "ḳ": 437,
      "ḵ": 438,
      "Ḷ": 439,
      "ḷ": 440,
      "ḹ": 441,
      "ḻ": 442,
      "ṁ": 443,
      "ṃ": 444,
      "Ṅ": 445,
      "ṅ": 446,
      "Ṇ": 447,
      "ṇ": 448,
      "ṉ": 449,
      "ṑ": 450,
      "ṓ": 451,
      "ṗ": 452,
      "ṙ": 453,
      "Ṛ": 454,
      "ṛ": 455,
      "Ṝ": 456,
      "ṝ": 457,
      "Ṟ": 458,
      "ṟ": 459,
      "Ṣ": 460,
      "ṣ": 461,
      "Ṧ": 462,
      "Ṭ": 463,
      "ṭ": 464,
      "Ṯ": 465,
      "ṯ": 466,
      "ṷ": 467,
      "Ẓ": 468,
      "ẓ": 469,
      "Ẕ": 470,
      "ẕ": 471,
      "ẖ": 472,
      "ẗ": 473,
      "ẞ": 474,
      "ẟ": 475,
      "ạ": 476,
      "ả": 477,
      "Ấ": 478,
      "ấ": 479,
      "ầ": 480,
      "ẩ": 481,
      "ẫ": 482,
      "ậ": 483,
      "ắ": 484,
      "Ằ": 485,
      "ằ": 486,
      "ẳ": 487,
      "ẵ": 488,
      "Ặ": 489,
      "ặ": 490,
      "Ẹ": 491,
      "ẹ": 492,
      "ẻ": 493,
      "Ẽ": 494,
      "ẽ": 495,
      "ế": 496,
      "ề": 497,
      "ể": 498,
      "ễ": 499,
      "ệ": 500,
      "ỉ": 501,
      "ị": 502,
      "Ọ": 503,
      "ọ": 504,
      "ỏ": 505,
      "ố": 506,
      "ồ": 507,
      "ổ": 508,
      "Ỗ": 509,
      "ỗ": 510,
      "ộ": 511,
      "ớ": 512,
      "ờ": 513,
      "ở": 514,
      "Ỡ": 515,
      "ỡ": 516,
      "ợ": 517,
      "ụ": 518,
      "ủ": 519,
      "ứ": 520,
      "ừ": 521,
      "ử": 522,
      "ữ": 523,
      "ự": 524,
      "ỳ": 525,
      "Ỷ": 526,
      "ỷ": 527,
      "ỹ": 528,
      "Ỻ": 529,
      "ỻ": 530,
      "Ỽ": 531,
      "ỽ": 532,
      "‐": 533,
      "‒": 534,
      "–": 535,
      "—": 536,
      "―": 537,
      "‖": 538,
      "‘": 539,
      "’": 540,
      "‚": 541,
      "‛": 542,
      "“": 543,
      "”": 544,
      "„": 545,
      "‟": 546,
      "†": 547,
      "‡": 548,
      "•": 549,
      "‣": 550,
      "‰": 551,
      "‱": 552,
      "′": 553,
      "‸": 554,
      "‹": 555,
      "›": 556,
      "※": 557,
      "‽": 558,
      "⁁": 559,
      "⁂": 560,
      "⁄": 561,
      "⁅": 562,
      "⁆": 563,
      "⁊": 564,
      "⁠": 565,
      "₠": 566,
      "₡": 567,
      "₣": 568,
      "₤": 569,
      "₦": 570,
      "₩": 571,
      "₫": 572,
      "€": 573,
      "₭": 574,
      "₮": 575,
      "₱": 576,
      "₹": 577,
      "₽": 578,
      "℔": 579,
      "℘": 580,
      "℞": 581,
      "℧": 582,
      "℩": 583,
      "℮": 584,
      "←": 585,
      "↑": 586,
      "→": 587,
      "↓": 588,
      "↔": 589,
      "↗": 590,
      "↘": 591,
      "↦": 592,
      "↮": 593,
      "↯": 594,
      "↵": 595,
      "⇄": 596,
      "⇆": 597,
      "⇌": 598,
      "⇏": 599,
      "⇐": 600,
      "⇒": 601,
      "⇔": 602,
      "∀": 603,
      "∂": 604,
      "∃": 605,
      "∅": 606,
      "∆": 607,
      "∇": 608,
      "∈": 609,
      "∉": 610,
      "∏": 611,
      "∑": 612,
      "−": 613,
      "∓": 614,
      "∕": 615,
      "∖": 616,
      "∗": 617,
      "∘": 618,
      "∙": 619,
      "√": 620,
      "∛": 621,
      "∜": 622,
      "∝": 623,
      "∞": 624,
      "∠": 625,
      "∥": 626,
      "∧": 627,
      "∨": 628,
      "∩": 629,
      "∪": 630,
      "∫": 631,
      "∴": 632,
      "∼": 633,
      "≈": 634,
      "≠": 635,
      "≡": 636,
      "≢": 637,
      "≤": 638,
      "≥": 639,
      "≦": 640,
      "≧": 641,
      "≪": 642,
      "≫": 643,
      "≮": 644,
      "≯": 645,
      "⊂": 646,
      "⊃": 647,
      "⊆": 648,
      "⊕": 649,
      "⊖": 650,
      "⊗": 651,
      "⊙": 652,
      "⊝": 653,
      "⊞": 654,
      "⊢": 655,
      "⊥": 656,
      "⊻": 657,
      "⋀": 658,
      "⋅": 659,
      "⋘": 660,
      "⋙": 661,
      "⋮": 662,
      "⋯": 663,
      "⌀": 664,
      "⌘": 665,
      "⌥": 666,
      "⍺": 667,
      "⎄": 668,
      "⎷": 669,
      "⏚": 670,
      "─": 671,
      "━": 672,
      "│": 673,
      "┐": 674,
      "└": 675,
      "├": 676,
      "┼": 677,
      "╱": 678,
      "▀": 679,
      "▄": 680,
      "█": 681,
      "▌": 682,
      "■": 683,
      "□": 684,
      "▪": 685,
      "▬": 686,
      "▲": 687,
      "△": 688,
      "▶": 689,
      "►": 690,
      "▼": 691,
      "◀": 692,
      "◄": 693,
      "◆": 694,
      "◇": 695,
      "◊": 696,
      "◌": 697,
      "●": 698,
      "◐": 699,
      "◑": 700,
      "◦": 701,
      "☁": 702,
      "☂": 703,
      "★": 704,
      "☆": 705,
      "☉": 706,
      "☊": 707,
      "☋": 708,
      "☍": 709,
      "☐": 710,
      "☑": 711,
      "☒": 712,
      "☞": 713,
      "☥": 714,
      "☦": 715,
      "☧": 716,
      "☭": 717,
      "☮": 718,
      "☾": 719,
      "♀": 720,
      "♁": 721,
      "♂": 722,
      "♃": 723,
      "♅": 724,
      "♆": 725,
      "♈": 726,
      "♉": 727,
      "♊": 728,
      "♋": 729,
      "♌": 730,
      "♍": 731,
      "♎": 732,
      "♏": 733,
      "♐": 734,
      "♑": 735,
      "♒": 736,
      "♔": 737,
      "♕": 738,
      "♖": 739,
      "♗": 740,
      "♘": 741,
      "♙": 742,
      "♛": 743,
      "♟": 744,
      "♠": 745,
      "♣": 746,
      "♥": 747,
      "♦": 748,
      "♧": 749,
      "♪": 750,
      "♭": 751,
      "♮": 752,
      "♯": 753,
      "⚓": 754,
      "⚧": 755,
      "⚬": 756,
      "⛢": 757,
      "⛰": 758,
      "⛲": 759,
      "⛻": 760,
      "✀": 761,
      "✁": 762,
      "✃": 763,
      "✉": 764,
      "✓": 765,
      "✕": 766,
      "✳": 767,
      "❀": 768,
      "❤": 769,
      "❦": 770,
      "❬": 771,
      "❭": 772,
      "❷": 773,
      "❸": 774,
      "❹": 775,
      "❺": 776,
      "❻": 777,
      "❼": 778,
      "⟨": 779,
      "⟩": 780,
      "⥽": 781,
      "⦵": 782,
      "⩓": 783,
      "ⱥ": 784,
      "ⱱ": 785,
      "⸮": 786,
      "⸸": 787,
      "ꜣ": 788,
      "Ꝥ": 789,
      "ꝥ": 790,
      "Ꝩ": 791,
      "ꝩ": 792,
      "￼": 793,
      "🇪": 794,
      "🇫": 795,
      "🇬": 796,
      "🇷": 797,
      "🇸": 798,
      "🌴": 799,
      "🍱": 800,
      "🎌": 801,
      "🏣": 802,
      "🏻": 803,
      "🏼": 804,
      "🏽": 805,
      "🏾": 806,
      "🏿": 807,
      "💐": 808,
      "🔰": 809,
      "😀": 810,
      "😂": 811,
      "😃": 812,
      "😈": 813,
      "😭": 814,
      "🙈": 815,
      "🙉": 816,
      "🙊": 817,
      "##a": 818,
      "##r": 819,
      "##y": 820,
      "##s": 821,
      "##l": 822,
      "##i": 823,
      "##m": 824,
      "##p": 825,
      "##e": 826,
      "##f": 827,
      "##t": 828,
      "##v": 829,
      "##o": 830,
      "##c": 831,
      "##h": 832,
      "##b": 833,
      "##n": 834,
      "##k": 835,
      "##u": 836,
      "##g": 837,
      "##í": 838,
      "##z": 839,
      "##d": 840,
      "##å": 841,
      "##ä": 842,
      "##j": 843,
      "##ö": 844,
      "##é": 845,
      "##Z": 846,
      "##W": 847,
      "##ō": 848,
      "##ł": 849,
      "##ó": 850,
      "##w": 851,
      "##û": 852,
      "##─": 853,
      "##S": 854,
      "##x": 855,
      "##q": 856,
      "##6": 857,
      "##ü": 858,
      "##ž": 859,
      "##ā": 860,
      "##F": 861,
      "##æ": 862,
      "##N": 863,
      "##C": 864,
      "##ú": 865,
      "##ī": 866,
      "##đ": 867,
      "##á": 868,
      "##ø": 869,
      "##4": 870,
      "##O": 871,
      "##T": 872,
      "##ý": 873,
      "##ð": 874,
      "##è": 875,
      "##š": 876,
      "##X": 877,
      "##E": 878,
      "##V": 879,
      "##L": 880,
      "##A": 881,
      "##I": 882,
      "##ń": 883,
      "##Þ": 884,
      "##ŭ": 885,
      "##ć": 886,
      "##ū": 887,
      "##H": 888,
      "##Y": 889,
      "##M": 890,
      "##ß": 891,
      "##B": 892,
      "##0": 893,
      "##ẕ": 894,
      "##P": 895,
      "##U": 896,
      "##1": 897,
      "##G": 898,
      "##î": 899,
      "##R": 900,
      "##ô": 901,
      "##ţ": 902,
      "##ḩ": 903,
      "##2": 904,
      "##ê": 905,
      "##K": 906,
      "##č": 907,
      "##ẖ": 908,
      "##­": 909,
      "##ů": 910,
      "##ñ": 911,
      "##ŏ": 912,
      "##ș": 913,
      "##D": 914,
      "##ï": 915,
      "##ğ": 916,
      "##ṯ": 917,
      "##ṟ": 918,
      "##â": 919,
      "##ő": 920,
      "##ă": 921,
      "##5": 922,
      "##à": 923,
      "##3": 924,
      "##ě": 925,
      "##ë": 926,
      "##ż": 927,
      "##7": 928,
      "##ı": 929,
      "##J": 930,
      "##ț": 931,
      "##ḥ": 932,
      "##ò": 933,
      "##ľ": 934,
      "##ḑ": 935,
      "##ř": 936,
      "##ế": 937,
      "##ṉ": 938,
      "##ē": 939,
      "##ş": 940,
      "##Ä": 941,
      "##œ": 942,
      "##8": 943,
      "##õ": 944,
      "##ḏ": 945,
      "##ç": 946,
      "##þ": 947,
      "##ã": 948,
      "##Å": 949,
      "##ắ": 950,
      "##ę": 951,
      "##ạ": 952,
      "##ṭ": 953,
      "##ố": 954,
      "##ň": 955,
      "##ǵ": 956,
      "##−": 957,
      "##Q": 958,
      "##ḧ": 959,
      "##ķ": 960,
      "##ầ": 961,
      "##ė": 962,
      "##ļ": 963,
      "##9": 964,
      "##ś": 965,
      "##ǚ": 966,
      "##ą": 967,
      "##Ö": 968,
      "##°": 969,
      "##ả": 970,
      "##ħ": 971,
      "##ǫ": 972,
      "##£": 973,
      "##ʹ": 974,
      "##ì": 975,
      "##ṛ": 976,
      "##ǎ": 977,
      "##ĉ": 978,
      "##ģ": 979,
      "##ÿ": 980,
      "##ņ": 981,
      "##ď": 982,
      "##ù": 983,
      "##ộ": 984,
      "##ː": 985,
      "##ḍ": 986,
      "##Ê": 987,
      "##Ç": 988,
      "##ứ": 989,
      "##É": 990,
      "##ṣ": 991,
      "##Æ": 992,
      "##®": 993,
      "##ḱ": 994,
      "##ŋ": 995,
      "##ǐ": 996,
      "##±": 997,
      "##∀": 998,
      "##≦": 999,
      "##ų": 1000,
      "##ĕ": 1001,
      "##ị": 1002,
      "##ẽ": 1003,
      "##≡": 1004,
      "##ấ": 1005,
      "##ĩ": 1006,
      "##ź": 1007,
      "##ừ": 1008,
      "##Ï": 1009,
      "##ṃ": 1010,
      "##ậ": 1011,
      "##Ø": 1012,
      "##≥": 1013,
      "##ť": 1014,
      "##ḗ": 1015,
      "##ỳ": 1016,
      "##ổ": 1017,
      "##ệ": 1018,
      "##ḫ": 1019,
      "##¬": 1020,
      "##Ü": 1021,
      "##ʻ": 1022,
      "##ằ": 1023,
      "##ṅ": 1024,
      "##ư": 1025,
      "##ơ": 1026,
      "##→": 1027,
      "##ű": 1028,
      "##×": 1029,
      "##Ī": 1030,
      "##ṓ": 1031,
      "##ờ": 1032,
      "##ǃ": 1033,
      "##♯": 1034,
      "##ƀ": 1035,
      "##ġ": 1036,
      "##ĭ": 1037,
      "##ċ": 1038,
      "##Ľ": 1039,
      "##Í": 1040,
      "##∙": 1041,
      "##Á": 1042,
      "##Š": 1043,
      "##￼": 1044,
      "##ƒ": 1045,
      "##ǒ": 1046,
      "##ể": 1047,
      "##Č": 1048,
      "##ʼ": 1049,
      "##ṇ": 1050,
      "##ồ": 1051,
      "##ʿ": 1052,
      "##♭": 1053,
      "##Ş": 1054,
      "##ữ": 1055,
      "##ˈ": 1056,
      "##🙈": 1057,
      "##🙊": 1058,
      "##ụ": 1059,
      "##ɣ": 1060,
      "##ĝ": 1061,
      "##ọ": 1062,
      "##ḷ": 1063,
      "##ƙ": 1064,
      "##♦": 1065,
      "##ẹ": 1066,
      "##∆": 1067,
      "##İ": 1068,
      "##Ɨ": 1069,
      "##ẓ": 1070,
      "##ũ": 1071,
      "##Ů": 1072,
      "##🇷": 1073,
      "##ʽ": 1074,
      "##ŕ": 1075,
      "##ợ": 1076,
      "##ḻ": 1077,
      "##Ž": 1078,
      "##≤": 1079,
      "##Ż": 1080,
      "##Ḫ": 1081,
      "##ḯ": 1082,
      "##ặ": 1083,
      "##●": 1084,
      "##ṑ": 1085,
      "##♪": 1086,
      "##ỡ": 1087,
      "##Ō": 1088,
      "##È": 1089,
      "##Ñ": 1090,
      "##ʾ": 1091,
      "##★": 1092,
      "##ự": 1093,
      "##≠": 1094,
      "##ǁ": 1095,
      "##ȳ": 1096,
      "##ŝ": 1097,
      "##Ú": 1098,
      "##¥": 1099,
      "##ŷ": 1100,
      "##ỹ": 1101,
      "##Ĝ": 1102,
      "##ĺ": 1103,
      "##ử": 1104,
      "##ĵ": 1105,
      "##Ì": 1106,
      "##ǜ": 1107,
      "##Ã": 1108,
      "##ȟ": 1109,
      "##ǧ": 1110,
      "##Ð": 1111,
      "##ễ": 1112,
      "##": 1113,
      "##©": 1114,
      "##⋅": 1115,
      "##ẗ": 1116,
      "##Ą": 1117,
      "##ḋ": 1118,
      "##ớ": 1119,
      "##Đ": 1120,
      "##ǔ": 1121,
      "##ỉ": 1122,
      "##ẳ": 1123,
      "##ǿ": 1124,
      "##ề": 1125,
      "##ḓ": 1126,
      "##¦": 1127,
      "##Ẓ": 1128,
      "##ṷ": 1129,
      "##ỗ": 1130,
      "##ȯ": 1131,
      "##˧": 1132,
      "##€": 1133,
      "##ủ": 1134,
      "##į": 1135,
      "##ŵ": 1136,
      "##♥": 1137,
      "##À": 1138,
      "##ẩ": 1139,
      "##Ẕ": 1140,
      "##ǣ": 1141,
      "##█": 1142,
      "##ǟ": 1143,
      "##ŗ": 1144,
      "##Ā": 1145,
      "##Œ": 1146,
      "##┐": 1147,
      "##Ó": 1148,
      "##Ë": 1149,
      "##ḳ": 1150,
      "##▬": 1151,
      "##━": 1152,
      "##∞": 1153,
      "##Ǝ": 1154,
      "##↔": 1155,
      "##≈": 1156,
      "##ṗ": 1157,
      "##🇪": 1158,
      "##🇬": 1159,
      "##ở": 1160,
      "##ˮ": 1161,
      "##ṁ": 1162,
      "##∈": 1163,
      "##ǻ": 1164,
      "##ȝ": 1165,
      "##ˆ": 1166,
      "##₣": 1167,
      "##∴": 1168,
      "##ỏ": 1169,
      "##ẫ": 1170,
      "##ḡ": 1171,
      "##Ɔ": 1172,
      "##Õ": 1173,
      "##ˀ": 1174,
      "##↵": 1175,
      "##Į": 1176,
      "##☉": 1177,
      "##∂": 1178,
      "##↮": 1179,
      "##Ć": 1180,
      "##ḵ": 1181,
      "##¤": 1182,
      "##˨": 1183,
      "##ǽ": 1184,
      "##Ə": 1185,
      "##Ṛ": 1186,
      "##ỷ": 1187,
      "##Ł": 1188,
      "##¢": 1189,
      "##ǩ": 1190,
      "##Ṣ": 1191,
      "##ŧ": 1192,
      "##ḕ": 1193,
      "##ẞ": 1194,
      "##ˌ": 1195,
      "##": 1196,
      "##ǯ": 1197,
      "##ꜣ": 1198,
      "##Ʌ": 1199,
      "##Î": 1200,
      "##ʕ": 1201,
      "##☆": 1202,
      "##⊕": 1203,
      "##⊙": 1204,
      "##ǝ": 1205,
      "##Û": 1206,
      "##ǰ": 1207,
      "##ẵ": 1208,
      "##ẻ": 1209,
      "##ȏ": 1210,
      "##ˊ": 1211,
      "##ǥ": 1212,
      "##": 1213,
      "##ƈ": 1214,
      "##Ù": 1215,
      "##": 1216,
      "##∅": 1217,
      "##": 1218,
      "##◀": 1219,
      "##": 1220,
      "##Ÿ": 1221,
      "##÷": 1222,
      "##en": 1223,
      "##er": 1224,
      "##ar": 1225,
      "##st": 1226,
      "##et": 1227,
      "##an": 1228,
      "är": 1229,
      "##ed": 1230,
      "##in": 1231,
      "##at": 1232,
      "##ad": 1233,
      "##om": 1234,
      "##ch": 1235,
      "##ll": 1236,
      "##or": 1237,
      "och": 1238,
      "##ör": 1239,
      "##ra": 1240,
      "##ig": 1241,
      "##el": 1242,
      "##tt": 1243,
      "##kt": 1244,
      "##on": 1245,
      "##sk": 1246,
      "med": 1247,
      "##un": 1248,
      "av": 1249,
      "##al": 1250,
      "##il": 1251,
      "##ng": 1252,
      "##and": 1253,
      "den": 1254,
      "##am": 1255,
      "en": 1256,
      "##ing": 1257,
      "##em": 1258,
      "##es": 1259,
      "##ste": 1260,
      "##eter": 1261,
      "##ån": 1262,
      "##ill": 1263,
      "##re": 1264,
      "##der": 1265,
      "##ur": 1266,
      "som": 1267,
      "Den": 1268,
      "##är": 1269,
      "om": 1270,
      "##art": 1271,
      "##aste": 1272,
      "##ol": 1273,
      "##aden": 1274,
      "##ade": 1275,
      "för": 1276,
      "##is": 1277,
      "##örd": 1278,
      "##sn": 1279,
      "##id": 1280,
      "##og": 1281,
      "°C": 1282,
      "##eder": 1283,
      "##kten": 1284,
      "in": 1285,
      "##ck": 1286,
      "##börd": 1287,
      "##ederbörd": 1288,
      "##li": 1289,
      "##per": 1290,
      "##ver": 1291,
      "##ro": 1292,
      "##år": 1293,
      "##lig": 1294,
      "##na": 1295,
      "var": 1296,
      "##ning": 1297,
      "##ud": 1298,
      "st": 1299,
      "##itt": 1300,
      "##ist": 1301,
      "##it": 1302,
      "##are": 1303,
      "##us": 1304,
      "##av": 1305,
      "##tem": 1306,
      "##eg": 1307,
      "##unt": 1308,
      "##as": 1309,
      "##rakten": 1310,
      "##ns": 1311,
      "på": 1312,
      "till": 1313,
      "##enom": 1314,
      "##pp": 1315,
      "##atur": 1316,
      "##nder": 1317,
      "##ger": 1318,
      "##ska": 1319,
      "##uv": 1320,
      "be": 1321,
      "##aturen": 1322,
      "##peraturen": 1323,
      "##eltem": 1324,
      "##eltemperaturen": 1325,
      "mån": 1326,
      "##uvud": 1327,
      "##ter": 1328,
      "ing": 1329,
      "del": 1330,
      "##lä": 1331,
      "månaden": 1332,
      "##snitt": 1333,
      "##all": 1334,
      "##ag": 1335,
      "mm": 1336,
      "##ri": 1337,
      "##enomsnitt": 1338,
      "km": 1339,
      "nederbörd": 1340,
      "##ak": 1341,
      "huvud": 1342,
      "under": 1343,
      "##äst": 1344,
      "##if": 1345,
      "lig": 1346,
      "##rä": 1347,
      "ligger": 1348,
      "ingår": 1349,
      "##ari": 1350,
      "fin": 1351,
      "över": 1352,
      "##ord": 1353,
      "##ion": 1354,
      "##ilj": 1355,
      "de": 1356,
      "##ber": 1357,
      "att": 1358,
      "trakten": 1359,
      "finns": 1360,
      "of": 1361,
      "##iv": 1362,
      "##sm": 1363,
      "##im": 1364,
      "##ue": 1365,
      "##rev": 1366,
      "år": 1367,
      "slä": 1368,
      "ett": 1369,
      "reg": 1370,
      "##ik": 1371,
      "##amilj": 1372,
      "##ilom": 1373,
      "det": 1374,
      "##ilometer": 1375,
      "##ot": 1376,
      "##nd": 1377,
      "familj": 1378,
      "##ktet": 1379,
      "##ent": 1380,
      "##nga": 1381,
      "runt": 1382,
      "familjen": 1383,
      "meter": 1384,
      "land": 1385,
      "##ru": 1386,
      "besk": 1387,
      "##arter": 1388,
      "##ia": 1389,
      "##sta": 1390,
      "##land": 1391,
      "##maste": 1392,
      "##att": 1393,
      "sy": 1394,
      "##revs": 1395,
      "släktet": 1396,
      "##atal": 1397,
      "beskrevs": 1398,
      "##avet": 1399,
      "underarter": 1400,
      "##ife": 1401,
      "kall": 1402,
      "list": 1403,
      "##atalog": 1404,
      "Life": 1405,
      "Catalog": 1406,
      "Catalogue": 1407,
      "delen": 1408,
      "Inga": 1409,
      "##os": 1410,
      "då": 1411,
      "listade": 1412,
      "##rat": 1413,
      "##ande": 1414,
      "havet": 1415,
      "sk": 1416,
      "##um": 1417,
      "##ut": 1418,
      "##de": 1419,
      "kv": 1420,
      "##ef": 1421,
      "År": 1422,
      "##orra": 1423,
      "ut": 1424,
      "landet": 1425,
      "##staden": 1426,
      "##ens": 1427,
      "##ul": 1428,
      "##het": 1429,
      "inv": 1430,
      "##mat": 1431,
      "huvudstaden": 1432,
      "sam": 1433,
      "##le": 1434,
      "##äll": 1435,
      "invån": 1436,
      "invånare": 1437,
      "##smed": 1438,
      "regn": 1439,
      "##olk": 1440,
      "##omm": 1441,
      "##äx": 1442,
      "##smedeltemperaturen": 1443,
      "Årsmedeltemperaturen": 1444,
      "varmaste": 1445,
      "kallaste": 1446,
      "medeltemperaturen": 1447,
      "##ic": 1448,
      "##ell": 1449,
      "##ta": 1450,
      "per": 1451,
      "##ust": 1452,
      "##op": 1453,
      "##adrat": 1454,
      "kvadrat": 1455,
      "##rå": 1456,
      "##igaste": 1457,
      "##arna": 1458,
      "##öd": 1459,
      "##kilometer": 1460,
      "kvadratkilometer": 1461,
      "##imeter": 1462,
      "genomsnitt": 1463,
      "mill": 1464,
      "torra": 1465,
      "millimeter": 1466,
      "##sen": 1467,
      "##snederbörd": 1468,
      "Genomsnitt": 1469,
      "årsnederbörd": 1470,
      "torraste": 1471,
      "Genomsnittlig": 1472,
      "regnigaste": 1473,
      "##ug": 1474,
      "##limat": 1475,
      "##anu": 1476,
      "syd": 1477,
      "pro": 1478,
      "##anuari": 1479,
      "januari": 1480,
      "nord": 1481,
      "an": 1482,
      "##eb": 1483,
      "han": 1484,
      "fr": 1485,
      "har": 1486,
      "##uli": 1487,
      "Det": 1488,
      "##la": 1489,
      "##ster": 1490,
      "St": 1491,
      "##efolk": 1492,
      "hö": 1493,
      "##ven": 1494,
      "vid": 1495,
      "##od": 1496,
      "##ep": 1497,
      "när": 1498,
      "juli": 1499,
      "##vin": 1500,
      "##väst": 1501,
      "##ost": 1502,
      "##befolk": 1503,
      "##ades": 1504,
      "##sak": 1505,
      "##ien": 1506,
      "##ngen": 1507,
      "##te": 1508,
      "hög": 1509,
      "upp": 1510,
      "##ac": 1511,
      "från": 1512,
      "##ov": 1513,
      "##giv": 1514,
      "huvudsak": 1515,
      "sp": 1516,
      "##heten": 1517,
      "tv": 1518,
      "##ark": 1519,
      "##ek": 1520,
      "##ans": 1521,
      "Ch": 1522,
      "rå": 1523,
      "Trakten": 1524,
      "komm": 1525,
      "##yg": 1526,
      "##iska": 1527,
      "##fter": 1528,
      "##ock": 1529,
      "men": 1530,
      "väst": 1531,
      "##und": 1532,
      "##errä": 1533,
      "##errängen": 1534,
      "##ort": 1535,
      "två": 1536,
      "##ller": 1537,
      "##ember": 1538,
      "pl": 1539,
      "provin": 1540,
      "råder": 1541,
      "##rt": 1542,
      "##än": 1543,
      "##ant": 1544,
      "närheten": 1545,
      "stör": 1546,
      "##sp": 1547,
      "##ugust": 1548,
      "##ats": 1549,
      "##ap": 1550,
      "##ann": 1551,
      "##ae": 1552,
      "provinsen": 1553,
      "pun": 1554,
      "högsta": 1555,
      "##för": 1556,
      "##son": 1557,
      "##ind": 1558,
      "Runt": 1559,
      "august": 1560,
      "augusti": 1561,
      "##ir": 1562,
      "väx": 1563,
      "##ick": 1564,
      "##befolkat": 1565,
      "##ka": 1566,
      "##jö": 1567,
      "punkten": 1568,
      "##ionen": 1569,
      "##ab": 1570,
      "kan": 1571,
      "##opp": 1572,
      "##ess": 1573,
      "##ningarna": 1574,
      "##ram": 1575,
      "##isk": 1576,
      "kommun": 1577,
      "##nings": 1578,
      "kilometer": 1579,
      "##äl": 1580,
      "fl": 1581,
      "##alet": 1582,
      "##anska": 1583,
      "Terrängen": 1584,
      "eller": 1585,
      "##ub": 1586,
      "sig": 1587,
      "##sart": 1588,
      "##jär": 1589,
      "##den": 1590,
      "##yr": 1591,
      "##red": 1592,
      "##se": 1593,
      "##ung": 1594,
      "##änd": 1595,
      "##givningarna": 1596,
      "##ok": 1597,
      "##åg": 1598,
      "##ång": 1599,
      "##ling": 1600,
      "sin": 1601,
      "##ala": 1602,
      "##stra": 1603,
      "##erg": 1604,
      "##ang": 1605,
      "##häll": 1606,
      "##det": 1607,
      "Han": 1608,
      "##ne": 1609,
      "ku": 1610,
      "samhäll": 1611,
      "##öl": 1612,
      "##rag": 1613,
      "##ars": 1614,
      "nor": 1615,
      "##ation": 1616,
      "##end": 1617,
      "##ier": 1618,
      "##ät": 1619,
      "##sam": 1620,
      "##områ": 1621,
      "ar": 1622,
      "där": 1623,
      "##öder": 1624,
      "öster": 1625,
      "##ma": 1626,
      "##da": 1627,
      "efter": 1628,
      "##skap": 1629,
      "##ätt": 1630,
      "##lev": 1631,
      "##yck": 1632,
      "nordväst": 1633,
      "vatt": 1634,
      "##amn": 1635,
      "väster": 1636,
      "##era": 1637,
      "##ib": 1638,
      "##aj": 1639,
      "##klimat": 1640,
      "##ebru": 1641,
      "först": 1642,
      "##ebruari": 1643,
      "februari": 1644,
      "När": 1645,
      "åt": 1646,
      "##erna": 1647,
      "##äg": 1648,
      "##ikt": 1649,
      "större": 1650,
      "##org": 1651,
      "##est": 1652,
      "##ob": 1653,
      "best": 1654,
      "##uni": 1655,
      "gl": 1656,
      "##ran": 1657,
      "##oc": 1658,
      "##ölj": 1659,
      "##ligen": 1660,
      "dec": 1661,
      "söder": 1662,
      "##rö": 1663,
      "##skog": 1664,
      "sydväst": 1665,
      "kon": 1666,
      "##väx": 1667,
      "##entra": 1668,
      "##ygg": 1669,
      "##äm": 1670,
      "##ake": 1671,
      "juni": 1672,
      "blev": 1673,
      "##ningen": 1674,
      "##lar": 1675,
      "##ott": 1676,
      "##ningsområ": 1677,
      "or": 1678,
      "##ära": 1679,
      "##rin": 1680,
      "berg": 1681,
      "december": 1682,
      "hade": 1683,
      "tid": 1684,
      "An": 1685,
      "även": 1686,
      "##ring": 1687,
      "##ligt": 1688,
      "sl": 1689,
      "##els": 1690,
      "sjö": 1691,
      "Al": 1692,
      "Lake": 1693,
      "##perad": 1694,
      "bland": 1695,
      "##ft": 1696,
      "##ip": 1697,
      "kuperad": 1698,
      "##he": 1699,
      "##iskt": 1700,
      "centra": 1701,
      "and": 1702,
      "##ss": 1703,
      "än": 1704,
      "##ry": 1705,
      "##rik": 1706,
      "samhälle": 1707,
      "ganska": 1708,
      "Närmaste": 1709,
      "inte": 1710,
      "norr": 1711,
      "följ": 1712,
      "##aw": 1713,
      "##ard": 1714,
      "föd": 1715,
      "##mer": 1716,
      "##ou": 1717,
      "mot": 1718,
      "##eck": 1719,
      "##ah": 1720,
      "centrala": 1721,
      "##eh": 1722,
      "består": 1723,
      "##ec": 1724,
      "##rig": 1725,
      "##oppen": 1726,
      "##oll": 1727,
      "##ron": 1728,
      "gles": 1729,
      "##ina": 1730,
      "##ull": 1731,
      "##edan": 1732,
      "sep": 1733,
      "##äng": 1734,
      "glesbefolkat": 1735,
      "##iss": 1736,
      "nära": 1737,
      "hon": 1738,
      "omgivningarna": 1739,
      "##des": 1740,
      "##oh": 1741,
      "växer": 1742,
      "Toppen": 1743,
      "##sh": 1744,
      "all": 1745,
      "vil": 1746,
      "##ast": 1747,
      "##bet": 1748,
      "##ay": 1749,
      "##ket": 1750,
      "tät": 1751,
      "##ober": 1752,
      "##amp": 1753,
      "##uc": 1754,
      "nordost": 1755,
      "##liga": 1756,
      "så": 1757,
      "##man": 1758,
      "##ore": 1759,
      "nov": 1760,
      "##fl": 1761,
      "spel": 1762,
      "##tember": 1763,
      "##ekt": 1764,
      "september": 1765,
      "##ev": 1766,
      "##smark": 1767,
      "##rop": 1768,
      "##ex": 1769,
      "##pr": 1770,
      "##idae": 1771,
      "##onen": 1772,
      "fick": 1773,
      "##ld": 1774,
      "##endrag": 1775,
      "##yn": 1776,
      "##arl": 1777,
      "##östra": 1778,
      "##ken": 1779,
      "##sl": 1780,
      "november": 1781,
      "##ara": 1782,
      "vattendrag": 1783,
      "andra": 1784,
      "regionen": 1785,
      "Om": 1786,
      "##ada": 1787,
      "platt": 1788,
      "född": 1789,
      "##ora": 1790,
      "##tart": 1791,
      "må": 1792,
      "##ass": 1793,
      "##ong": 1794,
      "fram": 1795,
      "##ild": 1796,
      "##ruk": 1797,
      "##rit": 1798,
      "##ff": 1799,
      "##yd": 1800,
      "Ar": 1801,
      "##inn": 1802,
      "man": 1803,
      "mars": 1804,
      "följande": 1805,
      "sydost": 1806,
      "##indre": 1807,
      "samt": 1808,
      "genom": 1809,
      "##cks": 1810,
      "Art": 1811,
      "tätbefolkat": 1812,
      "##bl": 1813,
      "##olm": 1814,
      "##ett": 1815,
      "mindre": 1816,
      "namn": 1817,
      "sv": 1818,
      "##io": 1819,
      "första": 1820,
      "##ph": 1821,
      "##alt": 1822,
      "gr": 1823,
      "##nat": 1824,
      "En": 1825,
      "maj": 1826,
      "Kū": 1827,
      "##ets": 1828,
      "##orm": 1829,
      "##ningar": 1830,
      "huvudsakligen": 1831,
      "områ": 1832,
      "plats": 1833,
      "Sver": 1834,
      "ex": 1835,
      "okt": 1836,
      "talet": 1837,
      "##aren": 1838,
      "In": 1839,
      "oktober": 1840,
      "Sverig": 1841,
      "##ycket": 1842,
      "ant": 1843,
      "sitt": 1844,
      "Kūh": 1845,
      "sven": 1846,
      "##ata": 1847,
      "##ement": 1848,
      "##ors": 1849,
      "##yt": 1850,
      "##ana": 1851,
      "##fta": 1852,
      "##järil": 1853,
      "De": 1854,
      "##var": 1855,
      "kom": 1856,
      "##åt": 1857,
      "rikt": 1858,
      "mycket": 1859,
      "jord": 1860,
      "##berg": 1861,
      "##ellan": 1862,
      "delst": 1863,
      "##rinningsområ": 1864,
      "död": 1865,
      "##ella": 1866,
      "syfta": 1867,
      "##ts": 1868,
      "##sklimat": 1869,
      "dess": 1870,
      "ny": 1871,
      "ver": 1872,
      "##ie": 1873,
      "##awa": 1874,
      "##ym": 1875,
      "##örj": 1876,
      "##res": 1877,
      "##uk": 1878,
      "##del": 1879,
      "##erade": 1880,
      "##igt": 1881,
      "##ount": 1882,
      "##ont": 1883,
      "##bruk": 1884,
      "##vänd": 1885,
      "##aten": 1886,
      "##ich": 1887,
      "##ckså": 1888,
      "##ow": 1889,
      "##oph": 1890,
      "##befolkad": 1891,
      "också": 1892,
      "##ving": 1893,
      "hem": 1894,
      "grä": 1895,
      "##ern": 1896,
      "största": 1897,
      "##pril": 1898,
      "sj": 1899,
      "april": 1900,
      "##holm": 1901,
      "obefolkad": 1902,
      "##ödra": 1903,
      "nog": 1904,
      "Kan": 1905,
      "riktning": 1906,
      "##iet": 1907,
      "##gen": 1908,
      "##pel": 1909,
      "Ant": 1910,
      "fjäril": 1911,
      "al": 1912,
      "utb": 1913,
      "##ea": 1914,
      "mellan": 1915,
      "##eart": 1916,
      "Sk": 1917,
      "##verk": 1918,
      "##ering": 1919,
      "##iga": 1920,
      "Omgivningarna": 1921,
      "klimat": 1922,
      "##orn": 1923,
      "La": 1924,
      "bas": 1925,
      "##kring": 1926,
      "Ott": 1927,
      "##ys": 1928,
      "stä": 1929,
      "vilket": 1930,
      "Ne": 1931,
      "kl": 1932,
      "Sverige": 1933,
      "##ställ": 1934,
      "sedan": 1935,
      "börj": 1936,
      "##raf": 1937,
      "##yl": 1938,
      "##zonen": 1939,
      "området": 1940,
      "jordbruk": 1941,
      "kommunen": 1942,
      "För": 1943,
      "sydöstra": 1944,
      "##oreala": 1945,
      "##alb": 1946,
      "Sh": 1947,
      "klimatzonen": 1948,
      "br": 1949,
      "##mar": 1950,
      "##riv": 1951,
      "Med": 1952,
      "##ementet": 1953,
      "vär": 1954,
      "någ": 1955,
      "##jur": 1956,
      "fjärilsart": 1957,
      "##ian": 1958,
      "##yrk": 1959,
      "Fran": 1960,
      "Sp": 1961,
      "##ras": 1962,
      "##jord": 1963,
      "##up": 1964,
      "omkring": 1965,
      "##ce": 1966,
      "##agg": 1967,
      "##nad": 1968,
      "##avann": 1969,
      "Joh": 1970,
      "##enn": 1971,
      "##ons": 1972,
      "##je": 1973,
      "sen": 1974,
      "tvåving": 1975,
      "Kanada": 1976,
      "platser": 1977,
      "##sb": 1978,
      "##akt": 1979,
      "##ropiskt": 1980,
      "##öv": 1981,
      "##ium": 1982,
      "##ilm": 1983,
      "annat": 1984,
      "inn": 1985,
      "delstaten": 1986,
      "Th": 1987,
      "Le": 1988,
      "jordbruksmark": 1989,
      "##ert": 1990,
      "Stock": 1991,
      "##istor": 1992,
      "##yp": 1993,
      "södra": 1994,
      "grund": 1995,
      "##rist": 1996,
      "##fatt": 1997,
      "##växter": 1998,
      "norra": 1999,
      "##ris": 2000,
      "##itet": 2001,
      "Ph": 2002,
      "Hon": 2003,
      "bli": 2004,
      "##växtart": 2005,
      "tvåvingeart": 2006,
      "El": 2007,
      "Ind": 2008,
      "Sch": 2009,
      "Under": 2010,
      "##kte": 2011,
      "##osa": 2012,
      "använd": 2013,
      "##ica": 2014,
      "Lac": 2015,
      "##ensis": 2016,
      "Stockholm": 2017,
      "##ult": 2018,
      "led": 2019,
      "##iver": 2020,
      "##erat": 2021,
      "##ds": 2022,
      "Mar": 2023,
      "##ach": 2024,
      "##äv": 2025,
      "ha": 2026,
      "Ottawa": 2027,
      "##vis": 2028,
      "##lighet": 2029,
      "##lad": 2030,
      "##öp": 2031,
      "Par": 2032,
      "##skland": 2033,
      "Ett": 2034,
      "##ius": 2035,
      "arbet": 2036,
      "##istri": 2037,
      "hans": 2038,
      "##aget": 2039,
      "bygg": 2040,
      "##pl": 2041,
      "hel": 2042,
      "##ack": 2043,
      "##ogram": 2044,
      "##elh": 2045,
      "bet": 2046,
      "##ola": 2047,
      "Gu": 2048,
      "##öj": 2049,
      "##arn": 2050,
      "slut": 2051,
      "##rid": 2052,
      "##au": 2053,
      "##min": 2054,
      "##nas": 2055,
      "omgiv": 2056,
      "##öt": 2057,
      "##our": 2058,
      "inom": 2059,
      "##ytt": 2060,
      "##mans": 2061,
      "##ansk": 2062,
      "ans": 2063,
      "##åll": 2064,
      "##ey": 2065,
      "verk": 2066,
      "##ers": 2067,
      "åter": 2068,
      "öpp": 2069,
      "##ain": 2070,
      "Cre": 2071,
      "rep": 2072,
      "##ulle": 2073,
      "lång": 2074,
      "##spel": 2075,
      "##lika": 2076,
      "Fin": 2077,
      "##ite": 2078,
      "##veck": 2079,
      "##nar": 2080,
      "mus": 2081,
      "##onom": 2082,
      "##part": 2083,
      "##äk": 2084,
      "rik": 2085,
      "##ål": 2086,
      "Cer": 2087,
      "skulle": 2088,
      "##igare": 2089,
      "##ei": 2090,
      "##ende": 2091,
      "ur": 2092,
      "art": 2093,
      "växt": 2094,
      "San": 2095,
      "##qu": 2096,
      "förs": 2097,
      "Efter": 2098,
      "##eri": 2099,
      "##räck": 2100,
      "##hus": 2101,
      "##olog": 2102,
      "pol": 2103,
      "##ond": 2104,
      "##alen": 2105,
      "##ct": 2106,
      "Creek": 2107,
      "östra": 2108,
      "##lag": 2109,
      "Klimat": 2110,
      "västra": 2111,
      "Bred": 2112,
      "svensk": 2113,
      "Pro": 2114,
      "utan": 2115,
      "##az": 2116,
      "nu": 2117,
      "##ida": 2118,
      "##eras": 2119,
      "utbred": 2120,
      "omgivande": 2121,
      "flera": 2122,
      "##dag": 2123,
      "basen": 2124,
      "##ön": 2125,
      "##rupp": 2126,
      "Col": 2127,
      "##of": 2128,
      "##samling": 2129,
      "##ukt": 2130,
      "terrängen": 2131,
      "läng": 2132,
      "##ift": 2133,
      "sm": 2134,
      "Bredden": 2135,
      "konst": 2136,
      "##yll": 2137,
      "enligt": 2138,
      "senare": 2139,
      "hemib": 2140,
      "hemiboreala": 2141,
      "##elart": 2142,
      "##else": 2143,
      "##och": 2144,
      "olika": 2145,
      "Br": 2146,
      "##röm": 2147,
      "tre": 2148,
      "##eng": 2149,
      "##sekt": 2150,
      "stor": 2151,
      "kun": 2152,
      "##skapet": 2153,
      "bergig": 2154,
      "natur": 2155,
      "tr": 2156,
      "##länd": 2157,
      "min": 2158,
      "växtlighet": 2159,
      "sina": 2160,
      "##ine": 2161,
      "##som": 2162,
      "##förd": 2163,
      "##ningsområde": 2164,
      "##ograf": 2165,
      "##ire": 2166,
      "dock": 2167,
      "##ubb": 2168,
      "pr": 2169,
      "##rinningsområdet": 2170,
      "##ena": 2171,
      "Artens": 2172,
      "gäll": 2173,
      "utbredningsområde": 2174,
      "Tropiskt": 2175,
      "The": 2176,
      "##alm": 2177,
      "##th": 2178,
      "ort": 2179,
      "ek": 2180,
      "##led": 2181,
      "detta": 2182,
      "Bo": 2183,
      "blandskog": 2184,
      "samma": 2185,
      "##ök": 2186,
      "##jön": 2187,
      "##rod": 2188,
      "##ja": 2189,
      "tidigare": 2190,
      "utg": 2191,
      "Finland": 2192,
      "##jorde": 2193,
      "##mp": 2194,
      "insekt": 2195,
      "##rean": 2196,
      "tillh": 2197,
      "##ommun": 2198,
      "##räd": 2199,
      "##tal": 2200,
      "##ård": 2201,
      "ord": 2202,
      "##ten": 2203,
      "vara": 2204,
      "##djur": 2205,
      "Cerro": 2206,
      "Av": 2207,
      "##lin": 2208,
      "##äck": 2209,
      "##ula": 2210,
      "stad": 2211,
      "##rätt": 2212,
      "##ugor": 2213,
      "skalb": 2214,
      "Her": 2215,
      "skalbagg": 2216,
      "res": 2217,
      "liv": 2218,
      "##erv": 2219,
      "##ii": 2220,
      "##älv": 2221,
      "Is": 2222,
      "ty": 2223,
      "##ren": 2224,
      "##rön": 2225,
      "##rakt": 2226,
      "Medelh": 2227,
      "tog": 2228,
      "##rott": 2229,
      "##ha": 2230,
      "##sammans": 2231,
      "##änn": 2232,
      "##erar": 2233,
      "##ura": 2234,
      "Klimatet": 2235,
      "##rike": 2236,
      "##klar": 2237,
      "el": 2238,
      "##ial": 2239,
      "int": 2240,
      "New": 2241,
      "##flugor": 2242,
      "Ge": 2243,
      "##rich": 2244,
      "bu": 2245,
      "Mount": 2246,
      "mest": 2247,
      "##sa": 2248,
      "##bar": 2249,
      "bl": 2250,
      "få": 2251,
      "Ut": 2252,
      "##arta": 2253,
      "##oma": 2254,
      "mat": 2255,
      "sä": 2256,
      "##ace": 2257,
      "##rar": 2258,
      "##andet": 2259,
      "##yc": 2260,
      "##merik": 2261,
      "Savann": 2262,
      "Savannklimat": 2263,
      "##stad": 2264,
      "##enter": 2265,
      "##rukt": 2266,
      "Ad": 2267,
      "##empel": 2268,
      "##partementet": 2269,
      "ber": 2270,
      "kyrk": 2271,
      "löv": 2272,
      "##erades": 2273,
      "bes": 2274,
      "er": 2275,
      "##eln": 2276,
      "bild": 2277,
      "antalet": 2278,
      "hand": 2279,
      "##ingen": 2280,
      "lite": 2281,
      "##ya": 2282,
      "##kl": 2283,
      "ad": 2284,
      "##satt": 2285,
      "bå": 2286,
      "##ones": 2287,
      "##ile": 2288,
      "Bar": 2289,
      "##vär": 2290,
      "vis": 2291,
      "svenska": 2292,
      "##ubli": 2293,
      "##smarker": 2294,
      "förb": 2295,
      "##ppklimat": 2296,
      "##oder": 2297,
      "##rali": 2298,
      "gräsmarker": 2299,
      "##amm": 2300,
      "ye": 2301,
      "##omb": 2302,
      "öst": 2303,
      "inga": 2304,
      "Frank": 2305,
      "##fors": 2306,
      "kallt": 2307,
      "skalbaggsart": 2308,
      "##ivers": 2309,
      "själv": 2310,
      "##rum": 2311,
      "##lem": 2312,
      "ofta": 2313,
      "Aust": 2314,
      "departementet": 2315,
      "ser": 2316,
      "##aria": 2317,
      "tem": 2318,
      "person": 2319,
      "ekonom": 2320,
      "distri": 2321,
      "##ity": 2322,
      "##yra": 2323,
      "##iod": 2324,
      "##atus": 2325,
      "par": 2326,
      "lag": 2327,
      "##alv": 2328,
      "##iz": 2329,
      "Qu": 2330,
      "amerik": 2331,
      "Vid": 2332,
      "här": 2333,
      "mer": 2334,
      "öppet": 2335,
      "##raft": 2336,
      "Am": 2337,
      "##erad": 2338,
      "##väg": 2339,
      "På": 2340,
      "Arten": 2341,
      "Ma": 2342,
      "un": 2343,
      "insektsart": 2344,
      "##ops": 2345,
      "sträck": 2346,
      "##orna": 2347,
      "van": 2348,
      "##ika": 2349,
      "Bras": 2350,
      "##sson": 2351,
      "många": 2352,
      "##råk": 2353,
      "Väst": 2354,
      "##urop": 2355,
      "tillsammans": 2356,
      "la": 2357,
      "Kh": 2358,
      "Man": 2359,
      "##iker": 2360,
      "##elsing": 2361,
      "##sätt": 2362,
      "film": 2363,
      "##håll": 2364,
      "##unn": 2365,
      "gällande": 2366,
      "##tern": 2367,
      "Helsing": 2368,
      "Arean": 2369,
      "##bb": 2370,
      "##ström": 2371,
      "form": 2372,
      "dag": 2373,
      "kull": 2374,
      "##minist": 2375,
      "Sc": 2376,
      "##rea": 2377,
      "känd": 2378,
      "stäppklimat": 2379,
      "##heter": 2380,
      "bef": 2381,
      "gör": 2382,
      "##ke": 2383,
      "##rav": 2384,
      "Jak": 2385,
      "Fr": 2386,
      "denna": 2387,
      "fort": 2388,
      "Carl": 2389,
      "##mark": 2390,
      "buskland": 2391,
      "sydlig": 2392,
      "busklandskap": 2393,
      "##gh": 2394,
      "US": 2395,
      "##lan": 2396,
      "##by": 2397,
      "släkte": 2398,
      "##stem": 2399,
      "tillhör": 2400,
      "##ton": 2401,
      "Pol": 2402,
      "Mex": 2403,
      "##eph": 2404,
      "##sf": 2405,
      "värld": 2406,
      "gjorde": 2407,
      "And": 2408,
      "Fl": 2409,
      "vatten": 2410,
      "##sten": 2411,
      "##järn": 2412,
      "alla": 2413,
      "ung": 2414,
      "##blad": 2415,
      "Antalet": 2416,
      "##utt": 2417,
      "##rut": 2418,
      "exempel": 2419,
      "mål": 2420,
      "##alis": 2421,
      "län": 2422,
      "##én": 2423,
      "Per": 2424,
      "Nord": 2425,
      "##elsen": 2426,
      "##ald": 2427,
      "##ater": 2428,
      "stora": 2429,
      "öken": 2430,
      "västlig": 2431,
      "lä": 2432,
      "##orb": 2433,
      "##ish": 2434,
      "sydvästra": 2435,
      "##eran": 2436,
      "##gan": 2437,
      "##oid": 2438,
      "Gr": 2439,
      "enda": 2440,
      "började": 2441,
      "##ngel": 2442,
      "##jör": 2443,
      "svamp": 2444,
      "##ric": 2445,
      "ökenklimat": 2446,
      "Australi": 2447,
      "nordöstra": 2448,
      "ch": 2449,
      "##räm": 2450,
      "##alk": 2451,
      "innan": 2452,
      "ingen": 2453,
      "##med": 2454,
      "Hans": 2455,
      "##ān": 2456,
      "stek": 2457,
      "##nade": 2458,
      "##uvudstaden": 2459,
      "##landsklimat": 2460,
      "##aceae": 2461,
      "##af": 2462,
      "äg": 2463,
      "USA": 2464,
      "##reg": 2465,
      "##cent": 2466,
      "församling": 2467,
      "sträcker": 2468,
      "##uder": 2469,
      "kat": 2470,
      "folk": 2471,
      "##ank": 2472,
      "musik": 2473,
      "stud": 2474,
      "##ivis": 2475,
      "dem": 2476,
      "Gun": 2477,
      "fot": 2478,
      "lövskog": 2479,
      "##ila": 2480,
      "säson": 2481,
      "öv": 2482,
      "##elt": 2483,
      "##out": 2484,
      "Indones": 2485,
      "##men": 2486,
      "##illa": 2487,
      "##ioner": 2488,
      "##iam": 2489,
      "##net": 2490,
      "##gång": 2491,
      "temper": 2492,
      "##ille": 2493,
      "Indonesien": 2494,
      "alb": 2495,
      "##ationen": 2496,
      "##slag": 2497,
      "##sv": 2498,
      "##jän": 2499,
      "##spr": 2500,
      "All": 2501,
      "Helsingfors": 2502,
      "##ser": 2503,
      "Karl": 2504,
      "samhällen": 2505,
      "##ärn": 2506,
      "##veckling": 2507,
      "Teh": 2508,
      "##urg": 2509,
      "Jakarta": 2510,
      "##ux": 2511,
      "##ath": 2512,
      "ind": 2513,
      "Or": 2514,
      "kulle": 2515,
      "von": 2516,
      "for": 2517,
      "förek": 2518,
      "polit": 2519,
      "histor": 2520,
      "Frankrike": 2521,
      "##iva": 2522,
      "sub": 2523,
      "##ings": 2524,
      "##amb": 2525,
      "##ingar": 2526,
      "stekelart": 2527,
      "Ed": 2528,
      "Teheran": 2529,
      "##hand": 2530,
      "##ator": 2531,
      "Kommun": 2532,
      "nordvästra": 2533,
      "eg": 2534,
      "trä": 2535,
      "##ón": 2536,
      "Un": 2537,
      "gå": 2538,
      "främ": 2539,
      "##eborg": 2540,
      "##br": 2541,
      "##ez": 2542,
      "##arbet": 2543,
      "##ennes": 2544,
      "##ner": 2545,
      "sjön": 2546,
      "dessa": 2547,
      "##ej": 2548,
      "##arri": 2549,
      "skog": 2550,
      "delt": 2551,
      "##ago": 2552,
      "##lac": 2553,
      "Co": 2554,
      "prod": 2555,
      "Nor": 2556,
      "nya": 2557,
      "##oth": 2558,
      "staden": 2559,
      "Medelhav": 2560,
      "##cher": 2561,
      "Ag": 2562,
      "Dan": 2563,
      "##pt": 2564,
      "##djursart": 2565,
      "ekonomiska": 2566,
      "##steklar": 2567,
      "gen": 2568,
      "Sam": 2569,
      "##iken": 2570,
      "Medelhavsklimat": 2571,
      "##lands": 2572,
      "##lut": 2573,
      "##ister": 2574,
      "##uss": 2575,
      "vann": 2576,
      "##riget": 2577,
      "##ij": 2578,
      "flyg": 2579,
      "lik": 2580,
      "riks": 2581,
      "##cia": 2582,
      "Ty": 2583,
      "natt": 2584,
      "sock": 2585,
      "##arr": 2586,
      "barn": 2587,
      "##kom": 2588,
      "gång": 2589,
      "##oss": 2590,
      "area": 2591,
      "##oris": 2592,
      "##va": 2593,
      "beg": 2594,
      "##ografi": 2595,
      "Inlandsklimat": 2596,
      "##ög": 2597,
      "##ith": 2598,
      "##lade": 2599,
      "Georg": 2600,
      "##ministrat": 2601,
      "varit": 2602,
      "kung": 2603,
      "##ix": 2604,
      "##yk": 2605,
      "gick": 2606,
      "spelade": 2607,
      "äld": 2608,
      "##ista": 2609,
      "Mel": 2610,
      "allt": 2611,
      "Öster": 2612,
      "cir": 2613,
      "##olan": 2614,
      "##ander": 2615,
      "honom": 2616,
      "##öst": 2617,
      "Hen": 2618,
      "fem": 2619,
      "##ros": 2620,
      "Will": 2621,
      "Pa": 2622,
      "inne": 2623,
      "fyra": 2624,
      "naturlig": 2625,
      "##eten": 2626,
      "##boll": 2627,
      "##ox": 2628,
      "kont": 2629,
      "vin": 2630,
      "##äre": 2631,
      "##esh": 2632,
      "låt": 2633,
      "hos": 2634,
      "början": 2635,
      "##utom": 2636,
      "tempererat": 2637,
      "##rinningsområde": 2638,
      "Avrinningsområdet": 2639,
      "mosa": 2640,
      "te": 2641,
      "Göt": 2642,
      "##ärk": 2643,
      "Klad": 2644,
      "övrig": 2645,
      "##che": 2646,
      "##lor": 2647,
      "kvinn": 2648,
      "##van": 2649,
      "Bu": 2650,
      "ön": 2651,
      "##band": 2652,
      "förekomm": 2653,
      "##ca": 2654,
      "##sprung": 2655,
      "Kladogram": 2656,
      "kunde": 2657,
      "fan": 2658,
      "##las": 2659,
      "##öm": 2660,
      "mosaik": 2661,
      "##dseg": 2662,
      "namnet": 2663,
      "##tter": 2664,
      "städseg": 2665,
      "##umb": 2666,
      "##lex": 2667,
      "Ab": 2668,
      "Mad": 2669,
      "##ärefter": 2670,
      "##bygg": 2671,
      "##ask": 2672,
      "ger": 2673,
      "bel": 2674,
      "flytt": 2675,
      "by": 2676,
      "städsegrön": 2677,
      "väg": 2678,
      "blir": 2679,
      "period": 2680,
      "##ār": 2681,
      "##aka": 2682,
      "##co": 2683,
      "##arande": 2684,
      "##jäl": 2685,
      "##ellt": 2686,
      "##ävling": 2687,
      "##ret": 2688,
      "##dom": 2689,
      "medlem": 2690,
      "##ira": 2691,
      "tur": 2692,
      "##agn": 2693,
      "##gg": 2694,
      "tot": 2695,
      "##int": 2696,
      "Ac": 2697,
      "inneb": 2698,
      "##ition": 2699,
      "års": 2700,
      "##avrinningsområde": 2701,
      "##arriär": 2702,
      "Rh": 2703,
      "Mor": 2704,
      "##ita": 2705,
      "Sven": 2706,
      "savann": 2707,
      "Australien": 2708,
      "##olf": 2709,
      "##als": 2710,
      "fär": 2711,
      "några": 2712,
      "##its": 2713,
      "##emi": 2714,
      "Ol": 2715,
      "Kommunen": 2716,
      "arten": 2717,
      "fil": 2718,
      "do": 2719,
      "lj": 2720,
      "Upp": 2721,
      "##rom": 2722,
      "Har": 2723,
      "Ko": 2724,
      "He": 2725,
      "landskapet": 2726,
      "##iel": 2727,
      "sn": 2728,
      "son": 2729,
      "Detta": 2730,
      "##anth": 2731,
      "Ber": 2732,
      "##rad": 2733,
      "John": 2734,
      "On": 2735,
      "##old": 2736,
      "##ler": 2737,
      "amp": 2738,
      "part": 2739,
      "ob": 2740,
      "##ins": 2741,
      "Del": 2742,
      "##ua": 2743,
      "Gunung": 2744,
      "count": 2745,
      "off": 2746,
      "##pro": 2747,
      "gav": 2748,
      "Reg": 2749,
      "Bro": 2750,
      "mark": 2751,
      "univers": 2752,
      "##bo": 2753,
      "##ork": 2754,
      "##anien": 2755,
      "milj": 2756,
      "Till": 2757,
      "föret": 2758,
      "##ilien": 2759,
      "Mo": 2760,
      "##omin": 2761,
      "fanns": 2762,
      "ol": 2763,
      "##ider": 2764,
      "Eng": 2765,
      "##ico": 2766,
      "##ice": 2767,
      "ursprung": 2768,
      "##uter": 2769,
      "Sant": 2770,
      "hela": 2771,
      "##upp": 2772,
      "##ax": 2773,
      "verksam": 2774,
      "ork": 2775,
      "Sar": 2776,
      "distriktet": 2777,
      "Europ": 2778,
      "Sm": 2779,
      "Mon": 2780,
      "uppg": 2781,
      "akt": 2782,
      "väl": 2783,
      "mons": 2784,
      "##ternation": 2785,
      "ställ": 2786,
      "rad": 2787,
      "monsun": 2788,
      "##ånd": 2789,
      "går": 2790,
      "##unds": 2791,
      "##ående": 2792,
      "spind": 2793,
      "##järt": 2794,
      "krä": 2795,
      "monsunklimat": 2796,
      "kant": 2797,
      "##ress": 2798,
      "##ighet": 2799,
      "##una": 2800,
      "##ationer": 2801,
      "prof": 2802,
      "##ritann": 2803,
      "författ": 2804,
      "läm": 2805,
      "##rek": 2806,
      "Chile": 2807,
      "##vatt": 2808,
      "##idé": 2809,
      "##ruppen": 2810,
      "##erande": 2811,
      "##form": 2812,
      "##ash": 2813,
      "både": 2814,
      "cirka": 2815,
      "uppt": 2816,
      "##elm": 2817,
      "omfatt": 2818,
      "Storb": 2819,
      "##hor": 2820,
      "Göteborg": 2821,
      "Befolk": 2822,
      "Sjön": 2823,
      "Af": 2824,
      "##roduc": 2825,
      "##gar": 2826,
      "ska": 2827,
      "##fördes": 2828,
      "kommer": 2829,
      "viss": 2830,
      "##onst": 2831,
      "Storbritann": 2832,
      "##rup": 2833,
      "Se": 2834,
      "##lat": 2835,
      "orkidé": 2836,
      "##mb": 2837,
      "regnskog": 2838,
      "växtart": 2839,
      "##umet": 2840,
      "##ckt": 2841,
      "##tes": 2842,
      "val": 2843,
      "Que": 2844,
      "##use": 2845,
      "bara": 2846,
      "Air": 2847,
      "##änt": 2848,
      "hus": 2849,
      "##ipp": 2850,
      "Jos": 2851,
      "##yrka": 2852,
      "##dde": 2853,
      "fisk": 2854,
      "du": 2855,
      "##arp": 2856,
      "Re": 2857,
      "##rim": 2858,
      "släpp": 2859,
      "Alger": 2860,
      "förekommer": 2861,
      "##ministrativ": 2862,
      "små": 2863,
      "kateg": 2864,
      "##orp": 2865,
      "används": 2866,
      "rätt": 2867,
      "Kal": 2868,
      "rel": 2869,
      "##naden": 2870,
      "Ta": 2871,
      "Lond": 2872,
      "##atan": 2873,
      "##ilt": 2874,
      "skap": 2875,
      "Dess": 2876,
      "##iat": 2877,
      "##talien": 2878,
      "regnskogsklimat": 2879,
      "##uld": 2880,
      "studer": 2881,
      "Storbritannien": 2882,
      "Gh": 2883,
      "norrut": 2884,
      "##ane": 2885,
      "##seud": 2886,
      "countyt": 2887,
      "po": 2888,
      "bok": 2889,
      "##iden": 2890,
      "tal": 2891,
      "##ive": 2892,
      "##ham": 2893,
      "##sc": 2894,
      "##arkt": 2895,
      "##kar": 2896,
      "##istan": 2897,
      "##anj": 2898,
      "rom": 2899,
      "söderut": 2900,
      "Bl": 2901,
      "Syd": 2902,
      "##one": 2903,
      "City": 2904,
      "##ge": 2905,
      "boreala": 2906,
      "le": 2907,
      "hennes": 2908,
      "plan": 2909,
      "##oner": 2910,
      "divis": 2911,
      "##otter": 2912,
      "##ymp": 2913,
      "Ha": 2914,
      "##rog": 2915,
      "lär": 2916,
      "Po": 2917,
      "London": 2918,
      "hett": 2919,
      "##ona": 2920,
      "##for": 2921,
      "##idan": 2922,
      "Ro": 2923,
      "##rand": 2924,
      "TV": 2925,
      "före": 2926,
      "##ga": 2927,
      "##bert": 2928,
      "Histor": 2929,
      "något": 2930,
      "##rade": 2931,
      "##elser": 2932,
      "amerikansk": 2933,
      "##port": 2934,
      "Tyskland": 2935,
      "Ver": 2936,
      "änd": 2937,
      "samman": 2938,
      "Gl": 2939,
      "låg": 2940,
      "##ley": 2941,
      "##met": 2942,
      "##roll": 2943,
      "utgör": 2944,
      "the": 2945,
      "##ält": 2946,
      "Ser": 2947,
      "kort": 2948,
      "##lia": 2949,
      "Con": 2950,
      "##ämnd": 2951,
      "##par": 2952,
      "##irekt": 2953,
      "##unkt": 2954,
      "##gent": 2955,
      "vikt": 2956,
      "Mont": 2957,
      "##lö": 2958,
      "##ruktbar": 2959,
      "profess": 2960,
      "Ex": 2961,
      "##iko": 2962,
      "##UC": 2963,
      "##éb": 2964,
      "##eringen": 2965,
      "William": 2966,
      "ta": 2967,
      "##vi": 2968,
      "Be": 2969,
      "egen": 2970,
      "##ori": 2971,
      "ofruktbar": 2972,
      "##orter": 2973,
      "##ekn": 2974,
      "##huvudstaden": 2975,
      "##ött": 2976,
      "Pe": 2977,
      "engel": 2978,
      "Bi": 2979,
      "IUC": 2980,
      "organ": 2981,
      "Car": 2982,
      "IUCN": 2983,
      "bi": 2984,
      "universitet": 2985,
      "varier": 2986,
      "Christ": 2987,
      "komp": 2988,
      "Kar": 2989,
      "antal": 2990,
      "socken": 2991,
      "Er": 2992,
      "##sför": 2993,
      "ner": 2994,
      "endast": 2995,
      "##rift": 2996,
      "##nan": 2997,
      "medan": 2998,
      "längd": 2999,
      "##ept": 3000,
      "deras": 3001,
      "sex": 3002,
      "far": 3003,
      "##ästa": 3004,
      "därefter": 3005,
      "Wil": 3006,
      "##me": 3007,
      "##ultur": 3008,
      "##ba": 3009,
      "##ale": 3010,
      "sätt": 3011,
      "ned": 3012,
      "Sa": 3013,
      "kantonen": 3014,
      "totalt": 3015,
      "fotboll": 3016,
      "##sch": 3017,
      "sång": 3018,
      "##onia": 3019,
      "vill": 3020,
      "num": 3021,
      "Brasilien": 3022,
      "bra": 3023,
      "##ilit": 3024,
      "##amot": 3025,
      "##lägg": 3026,
      "##ektar": 3027,
      "##öll": 3028,
      "nation": 3029,
      "äldre": 3030,
      "österut": 3031,
      "läg": 3032,
      "tjän": 3033,
      "##ärsk": 3034,
      "västerut": 3035,
      "##ho": 3036,
      "Des": 3037,
      "får": 3038,
      "re": 3039,
      "Enligt": 3040,
      "##iella": 3041,
      "Som": 3042,
      "##bin": 3043,
      "##meh": 3044,
      "moder": 3045,
      "##etenskap": 3046,
      "pres": 3047,
      "bak": 3048,
      "inneh": 3049,
      "pop": 3050,
      "hjäl": 3051,
      "Hel": 3052,
      "hektar": 3053,
      "##cis": 3054,
      "##ode": 3055,
      "Québ": 3056,
      "halv": 3057,
      "kor": 3058,
      "Québec": 3059,
      "Mal": 3060,
      "##lla": 3061,
      "männ": 3062,
      "II": 3063,
      "##örde": 3064,
      "##amer": 3065,
      "##za": 3066,
      "Fri": 3067,
      "##omy": 3068,
      "Kung": 3069,
      "Från": 3070,
      "Havet": 3071,
      "Chesh": 3072,
      "Öns": 3073,
      "##eta": 3074,
      "Sain": 3075,
      "skrev": 3076,
      "san": 3077,
      "Sv": 3078,
      "tillb": 3079,
      "fri": 3080,
      "prakt": 3081,
      "##köp": 3082,
      "bil": 3083,
      "##igh": 3084,
      "publi": 3085,
      "##chen": 3086,
      "kategoris": 3087,
      "Berg": 3088,
      "Kō": 3089,
      "fast": 3090,
      "##bund": 3091,
      "Provin": 3092,
      "Cl": 3093,
      "##ict": 3094,
      "avrinningsområdet": 3095,
      "##ivt": 3096,
      "betyd": 3097,
      "säsongen": 3098,
      "##förande": 3099,
      "Cheshmeh": 3100,
      "##ås": 3101,
      "##ani": 3102,
      "Bol": 3103,
      "##enb": 3104,
      "##amla": 3105,
      "##ceae": 3106,
      "##nen": 3107,
      "##ama": 3108,
      "##uver": 3109,
      "##ament": 3110,
      "##ådes": 3111,
      "innebär": 3112,
      "mät": 3113,
      "##ådespel": 3114,
      "Tim": 3115,
      "SM": 3116,
      "lok": 3117,
      "utveck": 3118,
      "Ander": 3119,
      "##ario": 3120,
      "slutet": 3121,
      "Kab": 3122,
      "delar": 3123,
      "Mexiko": 3124,
      "##amen": 3125,
      "Sveriges": 3126,
      "delstats": 3127,
      "sista": 3128,
      "##ebel": 3129,
      "##mann": 3130,
      "##över": 3131,
      "främst": 3132,
      "repres": 3133,
      "stort": 3134,
      "##ader": 3135,
      "deb": 3136,
      "##sg": 3137,
      "##tan": 3138,
      "##ystem": 3139,
      "skriv": 3140,
      "##utveckling": 3141,
      "Bra": 3142,
      "##ske": 3143,
      "pre": 3144,
      "##stället": 3145,
      "möj": 3146,
      "kategoriserar": 3147,
      "ang": 3148,
      "##vit": 3149,
      "##alp": 3150,
      "id": 3151,
      "köp": 3152,
      "Colomb": 3153,
      "Ny": 3154,
      "start": 3155,
      "ärt": 3156,
      "delstatshuvudstaden": 3157,
      "åren": 3158,
      "##ure": 3159,
      "ge": 3160,
      "##ropp": 3161,
      "met": 3162,
      "##rupper": 3163,
      "##odes": 3164,
      "någon": 3165,
      "des": 3166,
      "##lades": 3167,
      "##fäll": 3168,
      "övrigt": 3169,
      "##err": 3170,
      "##äster": 3171,
      "##bladig": 3172,
      "Dar": 3173,
      "England": 3174,
      "Ru": 3175,
      "##oides": 3176,
      "deltog": 3177,
      "ca": 3178,
      "fall": 3179,
      "Spanien": 3180,
      "britt": 3181,
      "##terna": 3182,
      "fukt": 3183,
      "vilken": 3184,
      "spec": 3185,
      "##aga": 3186,
      "##agen": 3187,
      "Mac": 3188,
      "##ism": 3189,
      "##äs": 3190,
      "##rades": 3191,
      "Bur": 3192,
      "##ide": 3193,
      "##sländ": 3194,
      "##ident": 3195,
      "Je": 3196,
      "##äss": 3197,
      "eftersom": 3198,
      "mitt": 3199,
      "stat": 3200,
      "personer": 3201,
      "##stånd": 3202,
      "##iro": 3203,
      "kallas": 3204,
      "hot": 3205,
      "##hjärt": 3206,
      "##landet": 3207,
      "region": 3208,
      "program": 3209,
      "bro": 3210,
      "##ligare": 3211,
      "##åller": 3212,
      "Norra": 3213,
      "##ilis": 3214,
      "administrativ": 3215,
      "##ifl": 3216,
      "##ynd": 3217,
      "##bland": 3218,
      "##rond": 3219,
      "##ood": 3220,
      "god": 3221,
      "##igheter": 3222,
      "##ci": 3223,
      "##oni": 3224,
      "Saint": 3225,
      "Dj": 3226,
      "Pet": 3227,
      "tred": 3228,
      "samband": 3229,
      "##lek": 3230,
      "Peter": 3231,
      "##orth": 3232,
      "beläg": 3233,
      "gener": 3234,
      "##när": 3235,
      "##ånga": 3236,
      "ry": 3237,
      "##träd": 3238,
      "##bild": 3239,
      "Lin": 3240,
      "##flyn": 3241,
      "ak": 3242,
      "kap": 3243,
      "redan": 3244,
      "##borg": 3245,
      "glob": 3246,
      "nattflyn": 3247,
      "människ": 3248,
      "##arnas": 3249,
      "Stockholms": 3250,
      "män": 3251,
      "dom": 3252,
      "Lind": 3253,
      "##horningar": 3254,
      "subt": 3255,
      "##jer": 3256,
      "##innare": 3257,
      "##asit": 3258,
      "järn": 3259,
      "avvatt": 3260,
      "Johan": 3261,
      "##ologi": 3262,
      "soc": 3263,
      "ark": 3264,
      "##val": 3265,
      "Paul": 3266,
      "allm": 3267,
      "Cal": 3268,
      "helt": 3269,
      "##itut": 3270,
      "##delen": 3271,
      "klubb": 3272,
      "spindelart": 3273,
      "beh": 3274,
      "##fin": 3275,
      "Svenska": 3276,
      "##kn": 3277,
      "gången": 3278,
      "delas": 3279,
      "##opsis": 3280,
      "##ema": 3281,
      "Mari": 3282,
      "skådespel": 3283,
      "särsk": 3284,
      "##itz": 3285,
      "##fer": 3286,
      "##oj": 3287,
      "##mask": 3288,
      "Island": 3289,
      "tiden": 3290,
      "##ío": 3291,
      "##äckt": 3292,
      "##cus": 3293,
      "seg": 3294,
      "##skolan": 3295,
      "##ward": 3296,
      "##liv": 3297,
      "Ca": 3298,
      "##ova": 3299,
      "em": 3300,
      "hur": 3301,
      "sc": 3302,
      "##bol": 3303,
      "##rots": 3304,
      "##idigt": 3305,
      "gräns": 3306,
      "Kust": 3307,
      "##opter": 3308,
      "Charl": 3309,
      "At": 3310,
      "##hjärtbladig": 3311,
      "divisionen": 3312,
      "slutt": 3313,
      "Mart": 3314,
      "und": 3315,
      "Su": 3316,
      "##eller": 3317,
      "##drag": 3318,
      "Lag": 3319,
      "##ília": 3320,
      "tit": 3321,
      "rör": 3322,
      "##äder": 3323,
      "Pseud": 3324,
      "se": 3325,
      "##lopp": 3326,
      "##eth": 3327,
      "Brasília": 3328,
      "##änder": 3329,
      "barr": 3330,
      "idag": 3331,
      "We": 3332,
      "band": 3333,
      "##gr": 3334,
      "Tor": 3335,
      "Alex": 3336,
      "##iana": 3337,
      "##jort": 3338,
      "krig": 3339,
      "tyska": 3340,
      "reproduc": 3341,
      "##ernas": 3342,
      "svampart": 3343,
      "##yo": 3344,
      "##varande": 3345,
      "##án": 3346,
      "sol": 3347,
      "sak": 3348,
      "##ströms": 3349,
      "Film": 3350,
      "Malm": 3351,
      "##spind": 3352,
      "organis": 3353,
      "milit": 3354,
      "Sal": 3355,
      "##fall": 3356,
      "##helm": 3357,
      "kraft": 3358,
      "Där": 3359,
      "Dav": 3360,
      "##plats": 3361,
      "##ogs": 3362,
      "Befolknings": 3363,
      "##andra": 3364,
      "##arm": 3365,
      "Tur": 3366,
      "mätare": 3367,
      "##que": 3368,
      "##avs": 3369,
      "Kōh": 3370,
      "##aler": 3371,
      "##anc": 3372,
      "lyck": 3373,
      "Lou": 3374,
      "vissa": 3375,
      "kvinnor": 3376,
      "Befolkningsutveckling": 3377,
      "istället": 3378,
      "##nes": 3379,
      "##skriget": 3380,
      "båda": 3381,
      "##rondiss": 3382,
      "##outh": 3383,
      "Lo": 3384,
      "Rom": 3385,
      "sjuk": 3386,
      "fuktigt": 3387,
      "##rän": 3388,
      "##räns": 3389,
      "##uvern": 3390,
      "Em": 3391,
      "##ota": 3392,
      "inst": 3393,
      "subtropiskt": 3394,
      "arrondiss": 3395,
      "forsk": 3396,
      "Te": 3397,
      "##sala": 3398,
      "Sim": 3399,
      "##gård": 3400,
      "ytter": 3401,
      "##igen": 3402,
      "Krist": 3403,
      "Erik": 3404,
      "##icus": 3405,
      "Brit": 3406,
      "##pha": 3407,
      "##ales": 3408,
      "direkt": 3409,
      "barrskog": 3410,
      "Min": 3411,
      "##okrat": 3412,
      "##satte": 3413,
      "Mexico": 3414,
      "hjälp": 3415,
      "utt": 3416,
      "##omp": 3417,
      "##enne": 3418,
      "##järvi": 3419,
      "et": 3420,
      "##fär": 3421,
      "Kabul": 3422,
      "##ria": 3423,
      "Fred": 3424,
      "reproducerande": 3425,
      "tillverk": 3426,
      "avg": 3427,
      "##lo": 3428,
      "##ias": 3429,
      "Kustklimat": 3430,
      "##cker": 3431,
      "arrondissementet": 3432,
      "Rab": 3433,
      "Johann": 3434,
      "##ão": 3435,
      "##rika": 3436,
      "##amnet": 3437,
      "guld": 3438,
      "##äknas": 3439,
      "produc": 3440,
      "Land": 3441,
      "Indien": 3442,
      "##ole": 3443,
      "##ima": 3444,
      "Mountain": 3445,
      "varje": 3446,
      "AB": 3447,
      "gift": 3448,
      "##rip": 3449,
      "gånger": 3450,
      "##efär": 3451,
      "##itter": 3452,
      "Men": 3453,
      "Alb": 3454,
      "gamla": 3455,
      "därför": 3456,
      "##ego": 3457,
      "##adels": 3458,
      "##her": 3459,
      "Río": 3460,
      "kvar": 3461,
      "##oul": 3462,
      "##aväx": 3463,
      "olymp": 3464,
      "##esi": 3465,
      "Ap": 3466,
      "Mc": 3467,
      "Norr": 3468,
      "Distri": 3469,
      "mestadels": 3470,
      "sluttar": 3471,
      "bruk": 3472,
      "##adem": 3473,
      "##uren": 3474,
      "##jen": 3475,
      "##aris": 3476,
      "dotter": 3477,
      "Danmark": 3478,
      "##ino": 3479,
      "##iaceae": 3480,
      "##ions": 3481,
      "##äd": 3482,
      "Lu": 3483,
      "kallar": 3484,
      "roll": 3485,
      "utbild": 3486,
      "klass": 3487,
      "kring": 3488,
      "##atet": 3489,
      "red": 3490,
      "Ry": 3491,
      "periodiskt": 3492,
      "##ies": 3493,
      "Ben": 3494,
      "Schw": 3495,
      "Bay": 3496,
      "##råg": 3497,
      "##otten": 3498,
      "##spindlar": 3499,
      "##ios": 3500,
      "##itekt": 3501,
      "ytan": 3502,
      "höj": 3503,
      "Mich": 3504,
      "dra": 3505,
      "##spelare": 3506,
      "Hu": 3507,
      "##roc": 3508,
      "ter": 3509,
      "fle": 3510,
      "Uppsala": 3511,
      "##blomm": 3512,
      "For": 3513,
      "##asa": 3514,
      "Columb": 3515,
      "kons": 3516,
      "djur": 3517,
      "Koud": 3518,
      "Bog": 3519,
      "##oden": 3520,
      "##omas": 3521,
      "##plan": 3522,
      "Pal": 3523,
      "Met": 3524,
      "håll": 3525,
      "##artyg": 3526,
      "Paris": 3527,
      "byggnad": 3528,
      "tex": 3529,
      "Mus": 3530,
      "syn": 3531,
      "globalt": 3532,
      "Ham": 3533,
      "internation": 3534,
      "##mus": 3535,
      "bildades": 3536,
      "Ont": 3537,
      "Li": 3538,
      "styr": 3539,
      "når": 3540,
      "##yst": 3541,
      "Denna": 3542,
      "kräft": 3543,
      "VM": 3544,
      "##unta": 3545,
      "uts": 3546,
      "##ela": 3547,
      "Colombia": 3548,
      "byggdes": 3549,
      "blivit": 3550,
      "vidare": 3551,
      "fått": 3552,
      "##omyia": 3553,
      "Söder": 3554,
      "Biografi": 3555,
      "rev": 3556,
      "George": 3557,
      "Ter": 3558,
      "vilka": 3559,
      "Ontario": 3560,
      "medverk": 3561,
      "##ordning": 3562,
      "##arg": 3563,
      "långhorningar": 3564,
      "republi": 3565,
      "##ryck": 3566,
      "##fekt": 3567,
      "Kina": 3568,
      "##uch": 3569,
      "##ate": 3570,
      "Lib": 3571,
      "savannskog": 3572,
      "##märk": 3573,
      "karriär": 3574,
      "sing": 3575,
      "##lden": 3576,
      "riket": 3577,
      "Mic": 3578,
      "plac": 3579,
      "bor": 3580,
      "näst": 3581,
      "##ker": 3582,
      "River": 3583,
      "framgång": 3584,
      "guvern": 3585,
      "Ros": 3586,
      "Loma": 3587,
      "##āh": 3588,
      "Sedan": 3589,
      "vattnet": 3590,
      "##öjden": 3591,
      "länder": 3592,
      "avsl": 3593,
      "kyrkan": 3594,
      "Ka": 3595,
      "amerikanska": 3596,
      "Även": 3597,
      "utanför": 3598,
      "Madrid": 3599,
      "York": 3600,
      "gif": 3601,
      "Las": 3602,
      "##ney": 3603,
      "ben": 3604,
      "##uvarande": 3605,
      "Ho": 3606,
      "##omen": 3607,
      "Los": 3608,
      "##ågs": 3609,
      "##skan": 3610,
      "arm": 3611,
      "vad": 3612,
      "##reb": 3613,
      "##ghan": 3614,
      "##sd": 3615,
      "##rån": 3616,
      "Me": 3617,
      "##to": 3618,
      "kval": 3619,
      "##komm": 3620,
      "British": 3621,
      "ledamot": 3622,
      "##ych": 3623,
      "produkt": 3624,
      "Rober": 3625,
      "pass": 3626,
      "kyrka": 3627,
      "ins": 3628,
      "Pas": 3629,
      "Norg": 3630,
      "ungefär": 3631,
      "blad": 3632,
      "befolk": 3633,
      "Herc": 3634,
      "##istiska": 3635,
      "South": 3636,
      "##ören": 3637,
      "##ården": 3638,
      "##iens": 3639,
      "framför": 3640,
      "flyttade": 3641,
      "Kl": 3642,
      "engelska": 3643,
      "tredje": 3644,
      "kultur": 3645,
      "språk": 3646,
      "##ytor": 3647,
      "lev": 3648,
      "Santi": 3649,
      "##vent": 3650,
      "varierad": 3651,
      "##ele": 3652,
      "##arktis": 3653,
      "inför": 3654,
      "ljus": 3655,
      "krit": 3656,
      "Tid": 3657,
      "public": 3658,
      "tävling": 3659,
      "##rafik": 3660,
      "grupp": 3661,
      "Provincia": 3662,
      "filmen": 3663,
      "tillbaka": 3664,
      "Quebr": 3665,
      "##sar": 3666,
      "Columbia": 3667,
      "ele": 3668,
      "##ritar": 3669,
      "system": 3670,
      "uppströms": 3671,
      "lever": 3672,
      "tysk": 3673,
      "##stritar": 3674,
      "##HI": 3675,
      "Louis": 3676,
      "##skola": 3677,
      "Gra": 3678,
      "##kh": 3679,
      "skri": 3680,
      "studerade": 3681,
      "Jean": 3682,
      "sten": 3683,
      "##vina": 3684,
      "Bel": 3685,
      "Afghan": 3686,
      "##procent": 3687,
      "##age": 3688,
      "jäm": 3689,
      "##anus": 3690,
      "Sy": 3691,
      "Quebrada": 3692,
      "lit": 3693,
      "##lack": 3694,
      "##iteten": 3695,
      "grev": 3696,
      "SMHI": 3697,
      "offic": 3698,
      "##atsen": 3699,
      "##āl": 3700,
      "##ening": 3701,
      "Santiago": 3702,
      "##under": 3703,
      "##yggor": 3704,
      "Kr": 3705,
      "full": 3706,
      "##järnen": 3707,
      "Jawa": 3708,
      "Bland": 3709,
      "Nation": 3710,
      "##ästare": 3711,
      "röd": 3712,
      "kallade": 3713,
      "delavrinningsområde": 3714,
      "Hall": 3715,
      "##mt": 3716,
      "Afghanistan": 3717,
      "##ti": 3718,
      "##ierna": 3719,
      "Delavrinningsområde": 3720,
      "Lund": 3721,
      "tvåhjärtbladig": 3722,
      "hitt": 3723,
      "Tr": 3724,
      "Rio": 3725,
      "##ides": 3726,
      "vattenytor": 3727,
      "annan": 3728,
      "##ockey": 3729,
      "Hand": 3730,
      "##uf": 3731,
      "Italien": 3732,
      "sjöprocent": 3733,
      "##ames": 3734,
      "kol": 3735,
      "Tall": 3736,
      "mon": 3737,
      "ordförande": 3738,
      "riksdag": 3739,
      "Res": 3740,
      "Bosn": 3741,
      "sna": 3742,
      "Phil": 3743,
      "Hill": 3744,
      "skiv": 3745,
      "##ban": 3746,
      "henne": 3747,
      "göra": 3748,
      "Rabat": 3749,
      "Södra": 3750,
      "Punta": 3751,
      "##uan": 3752,
      "serien": 3753,
      "Medelhöjden": 3754,
      "##förde": 3755,
      "##rac": 3756,
      "##apen": 3757,
      "Ra": 3758,
      "Pi": 3759,
      "vän": 3760,
      "äm": 3761,
      "##lats": 3762,
      "ordningen": 3763,
      "##tta": 3764,
      "##årt": 3765,
      "vers": 3766,
      "spelar": 3767,
      "säg": 3768,
      "representer": 3769,
      "kunna": 3770,
      "anv": 3771,
      "Count": 3772,
      "träd": 3773,
      "Argent": 3774,
      "sil": 3775,
      "oper": 3776,
      "##emat": 3777,
      "##ene": 3778,
      "Bosnien": 3779,
      "ledde": 3780,
      "##ign": 3781,
      "##vid": 3782,
      "##unk": 3783,
      "##bergs": 3784,
      "##iy": 3785,
      "Ou": 3786,
      "ytterligare": 3787,
      "##jekt": 3788,
      "mots": 3789,
      "typ": 3790,
      "##les": 3791,
      "##ocko": 3792,
      "##kan": 3793,
      "##ini": 3794,
      "kron": 3795,
      "##ād": 3796,
      "chef": 3797,
      "##rus": 3798,
      "##ión": 3799,
      "allmän": 3800,
      "gt": 3801,
      "släpptes": 3802,
      "Camp": 3803,
      "vi": 3804,
      "popul": 3805,
      "Univers": 3806,
      "professor": 3807,
      "teck": 3808,
      "Jo": 3809,
      "nå": 3810,
      "Park": 3811,
      "nuvarande": 3812,
      "Europa": 3813,
      "konstnär": 3814,
      "##skraft": 3815,
      "##anden": 3816,
      "Marocko": 3817,
      "at": 3818,
      "förm": 3819,
      "Dam": 3820,
      "bästa": 3821,
      "Historia": 3822,
      "växter": 3823,
      "##jet": 3824,
      "Bul": 3825,
      "lt": 3826,
      "##emiär": 3827,
      "inled": 3828,
      "miljoner": 3829,
      "rum": 3830,
      "##gren": 3831,
      "##rot": 3832,
      "fåg": 3833,
      "##ect": 3834,
      "beslut": 3835,
      "##yrt": 3836,
      "##iner": 3837,
      "franska": 3838,
      "författare": 3839,
      "Cor": 3840,
      "Vär": 3841,
      "bö": 3842,
      "##osit": 3843,
      "##elia": 3844,
      "##fjäril": 3845,
      "##anis": 3846,
      "Kat": 3847,
      "berätt": 3848,
      "käll": 3849,
      "##farande": 3850,
      "album": 3851,
      "##sning": 3852,
      "Wilhelm": 3853,
      "Ba": 3854,
      "##alus": 3855,
      "Hercego": 3856,
      "flesta": 3857,
      "##osp": 3858,
      "##irk": 3859,
      "Pr": 3860,
      "##ilus": 3861,
      "arbetade": 3862,
      "Jac": 3863,
      "##iph": 3864,
      "##otá": 3865,
      "##reväx": 3866,
      "Hercegovina": 3867,
      "anställ": 3868,
      "stöd": 3869,
      "miss": 3870,
      "kända": 3871,
      "Bogotá": 3872,
      "Santa": 3873,
      "Mat": 3874,
      "Bak": 3875,
      "##fjärilar": 3876,
      "##staf": 3877,
      "##ument": 3878,
      "##āb": 3879,
      "Gust": 3880,
      "snabb": 3881,
      "bort": 3882,
      "##följ": 3883,
      "mor": 3884,
      "##eiz": 3885,
      "sommar": 3886,
      "upph": 3887,
      "##jut": 3888,
      "tjänst": 3889,
      "##ämt": 3890,
      "fiskart": 3891,
      "##sst": 3892,
      "##assen": 3893,
      "orkidéer": 3894,
      "Charles": 3895,
      "Teng": 3896,
      "kräftdjursart": 3897,
      "##eld": 3898,
      "##rinningsområden": 3899,
      "km2": 3900,
      "is": 3901,
      "Gar": 3902,
      "Malmö": 3903,
      "rek": 3904,
      "##nämnd": 3905,
      "bifl": 3906,
      "##isp": 3907,
      "Nil": 3908,
      "Sen": 3909,
      "##yrkan": 3910,
      "bar": 3911,
      "##isc": 3912,
      "Barn": 3913,
      "##epp": 3914,
      "Ep": 3915,
      "Dessa": 3916,
      "##ången": 3917,
      "##fot": 3918,
      "##ero": 3919,
      "olympiska": 3920,
      "område": 3921,
      "##ydd": 3922,
      "##osof": 3923,
      "##jup": 3924,
      "provinsh": 3925,
      "Sten": 3926,
      "Kn": 3927,
      "##isse": 3928,
      "Argentina": 3929,
      "myr": 3930,
      "flöd": 3931,
      "ent": 3932,
      "tekn": 3933,
      "slutade": 3934,
      "##olor": 3935,
      "##oz": 3936,
      "provinshuvudstaden": 3937,
      "ps": 3938,
      "ibland": 3939,
      "Norge": 3940,
      "företag": 3941,
      "Mer": 3942,
      "##olut": 3943,
      "Lud": 3944,
      "##rådet": 3945,
      "Fried": 3946,
      "dal": 3947,
      "Jab": 3948,
      "Robert": 3949,
      "sänd": 3950,
      "Dra": 3951,
      "##inner": 3952,
      "Port": 3953,
      "hör": 3954,
      "måreväx": 3955,
      "Sw": 3956,
      "sål": 3957,
      "##ländska": 3958,
      "Desa": 3959,
      "##lit": 3960,
      "vux": 3961,
      "##blem": 3962,
      "##lingar": 3963,
      "Algeriet": 3964,
      "##adi": 3965,
      "Mag": 3966,
      "##bart": 3967,
      "bid": 3968,
      "avrinningsområden": 3969,
      "##bel": 3970,
      "utgiv": 3971,
      "därmed": 3972,
      "udde": 3973,
      "fortfarande": 3974,
      "August": 3975,
      "As": 3976,
      "Maria": 3977,
      "innehåller": 3978,
      "##inna": 3979,
      "##uh": 3980,
      "##vik": 3981,
      "##äns": 3982,
      "arter": 3983,
      "##app": 3984,
      "##ständ": 3985,
      "##lik": 3986,
      "distrikt": 3987,
      "nytt": 3988,
      "bed": 3989,
      "##nande": 3990,
      "##ador": 3991,
      "##pråk": 3992,
      "##olit": 3993,
      "##usa": 3994,
      "##området": 3995,
      "##äkt": 3996,
      "världskriget": 3997,
      "##unda": 3998,
      "längre": 3999,
      "County": 4000,
      "trad": 4001,
      "Ul": 4002,
      "##ette": 4003,
      "##uz": 4004,
      "##ral": 4005,
      "So": 4006,
      "året": 4007,
      "##ulus": 4008,
      "varav": 4009,
      "orkidéart": 4010,
      "sek": 4011,
      "särskilt": 4012,
      "lin": 4013,
      "vars": 4014,
      "Ek": 4015,
      "##nades": 4016,
      "biflöd": 4017,
      "samarbet": 4018,
      "##oter": 4019,
      "avvattnar": 4020,
      "pris": 4021,
      "##värg": 4022,
      "slott": 4023,
      "##myggor": 4024,
      "höjd": 4025,
      "##uell": 4026,
      "##oria": 4027,
      "##åren": 4028,
      "flödar": 4029,
      "##unger": 4030,
      "##repp": 4031,
      "##album": 4032,
      "sch": 4033,
      "förv": 4034,
      "##aph": 4035,
      "##anda": 4036,
      "Bern": 4037,
      "##uck": 4038,
      "##yder": 4039,
      "måste": 4040,
      "##ulata": 4041,
      "##ado": 4042,
      "##esordning": 4043,
      "##ös": 4044,
      "##ito": 4045,
      "biflödesordning": 4046,
      "turn": 4047,
      "ök": 4048,
      "##ökte": 4049,
      "##atum": 4050,
      "District": 4051,
      "##trä": 4052,
      "utveckling": 4053,
      "Op": 4054,
      "praktfjärilar": 4055,
      "försv": 4056,
      "##enh": 4057,
      "##spelen": 4058,
      "##abrik": 4059,
      "##rör": 4060,
      "##stopp": 4061,
      "svampar": 4062,
      "##ldrig": 4063,
      "Can": 4064,
      "stads": 4065,
      "##lav": 4066,
      "veck": 4067,
      "inåt": 4068,
      "##stads": 4069,
      "bron": 4070,
      "##alist": 4071,
      "##ih": 4072,
      "landsk": 4073,
      "lat": 4074,
      "Sand": 4075,
      "grundades": 4076,
      "kallad": 4077,
      "militär": 4078,
      "am": 4079,
      "Delh": 4080,
      "##ía": 4081,
      "North": 4082,
      "arkitekt": 4083,
      "användes": 4084,
      "##ustri": 4085,
      "##mos": 4086,
      "##jordes": 4087,
      "##ford": 4088,
      "##rys": 4089,
      "kropp": 4090,
      "Delhi": 4091,
      "##oende": 4092,
      "##öld": 4093,
      "Gustav": 4094,
      "Friedrich": 4095,
      "##uel": 4096,
      "##ski": 4097,
      "##ump": 4098,
      "##over": 4099,
      "cent": 4100,
      "Var": 4101,
      "ac": 4102,
      "##onn": 4103,
      "ref": 4104,
      "höll": 4105,
      "Här": 4106,
      "världen": 4107,
      "grav": 4108,
      "IF": 4109,
      "##ugh": 4110,
      "inter": 4111,
      "Thomas": 4112,
      "livskraft": 4113,
      "##emp": 4114,
      "##äcks": 4115,
      "Mot": 4116,
      "sidan": 4117,
      "Alexander": 4118,
      "##erb": 4119,
      "förbunds": 4120,
      "Dal": 4121,
      "Bor": 4122,
      "Rich": 4123,
      "##orten": 4124,
      "##ige": 4125,
      "infl": 4126,
      "aldrig": 4127,
      "samtidigt": 4128,
      "Ing": 4129,
      "såd": 4130,
      "##sättning": 4131,
      "Sol": 4132,
      "Lars": 4133,
      "kn": 4134,
      "stod": 4135,
      "Österrike": 4136,
      "Est": 4137,
      "##rax": 4138,
      "president": 4139,
      "##ophyll": 4140,
      "Bou": 4141,
      "Ung": 4142,
      "##vet": 4143,
      "Gre": 4144,
      "My": 4145,
      "##ifol": 4146,
      "brok": 4147,
      "Gustaf": 4148,
      "litter": 4149,
      "Arro": 4150,
      "Björ": 4151,
      "vit": 4152,
      "##ått": 4153,
      "Joseph": 4154,
      "##inus": 4155,
      "##åd": 4156,
      "Val": 4157,
      "beskriv": 4158,
      "##huset": 4159,
      "spelades": 4160,
      "näm": 4161,
      "##ly": 4162,
      "##ovjet": 4163,
      "dvärg": 4164,
      "hamn": 4165,
      "jur": 4166,
      "bergstopp": 4167,
      "##igheten": 4168,
      "muse": 4169,
      "gjort": 4170,
      "##ko": 4171,
      "##rikt": 4172,
      "##bundet": 4173,
      "Nya": 4174,
      "David": 4175,
      "Fredrik": 4176,
      "West": 4177,
      "##rh": 4178,
      "##iidae": 4179,
      "avslut": 4180,
      "via": 4181,
      "Ger": 4182,
      "Berlin": 4183,
      "poäng": 4184,
      "Ste": 4185,
      "Tj": 4186,
      "##parasit": 4187,
      "livskraftig": 4188,
      "satt": 4189,
      "mode": 4190,
      "##vist": 4191,
      "##eiska": 4192,
      "varmt": 4193,
      "brokparasit": 4194,
      "brokparasitsteklar": 4195,
      "Kon": 4196,
      "##läng": 4197,
      "regering": 4198,
      "strand": 4199,
      "djup": 4200,
      "Ort": 4201,
      "##erus": 4202,
      "##ilda": 4203,
      "skall": 4204,
      "##iellt": 4205,
      "Ak": 4206,
      "områden": 4207,
      "Hy": 4208,
      "ring": 4209,
      "##isa": 4210,
      "Brook": 4211,
      "da": 4212,
      "##ourn": 4213,
      "OS": 4214,
      "rit": 4215,
      "Hol": 4216,
      "Wien": 4217,
      "historia": 4218,
      "##vägen": 4219,
      "##stern": 4220,
      "filosof": 4221,
      "intress": 4222,
      "Fil": 4223,
      "behand": 4224,
      "lämnade": 4225,
      "##inal": 4226,
      "##sman": 4227,
      "Jabal": 4228,
      "Di": 4229,
      "Coll": 4230,
      "Ps": 4231,
      "af": 4232,
      "##nu": 4233,
      "kriget": 4234,
      "medelt": 4235,
      "Wh": 4236,
      "bred": 4237,
      "slag": 4238,
      "##oy": 4239,
      "##format": 4240,
      "republiken": 4241,
      "Plat": 4242,
      "förlor": 4243,
      "##off": 4244,
      "Henry": 4245,
      "såsom": 4246,
      "Francis": 4247,
      "##dern": 4248,
      "##act": 4249,
      "matcher": 4250,
      "##äls": 4251,
      "Jan": 4252,
      "Gro": 4253,
      "inkl": 4254,
      "bandet": 4255,
      "resp": 4256,
      "##enos": 4257,
      "jap": 4258,
      "##isseau": 4259,
      "täv": 4260,
      "##fisk": 4261,
      "##cha": 4262,
      "unders": 4263,
      "gifte": 4264,
      "##orea": 4265,
      "##inia": 4266,
      "Då": 4267,
      "##evo": 4268,
      "##råd": 4269,
      "##kor": 4270,
      "gruppen": 4271,
      "Tan": 4272,
      "##eningen": 4273,
      "Lapp": 4274,
      "##ervat": 4275,
      "##rets": 4276,
      "Ruisseau": 4277,
      "##anter": 4278,
      "Airport": 4279,
      "##otek": 4280,
      "studier": 4281,
      "Región": 4282,
      "##sjön": 4283,
      "Dom": 4284,
      "##sj": 4285,
      "##rick": 4286,
      "##bil": 4287,
      "numera": 4288,
      "##ahl": 4289,
      "##uterade": 4290,
      "premiär": 4291,
      "##āgh": 4292,
      "##ines": 4293,
      "trans": 4294,
      "##iri": 4295,
      "fortsatte": 4296,
      "egna": 4297,
      "##wa": 4298,
      "##ré": 4299,
      "skådespelare": 4300,
      "##ampar": 4301,
      "##sattes": 4302,
      "hopp": 4303,
      "tj": 4304,
      "människor": 4305,
      "##orus": 4306,
      "##steroid": 4307,
      "##assa": 4308,
      "albumet": 4309,
      "Pl": 4310,
      "nomin": 4311,
      "Edward": 4312,
      "Dh": 4313,
      "Mes": 4314,
      "##ano": 4315,
      "vetenskap": 4316,
      "Rud": 4317,
      "brev": 4318,
      "står": 4319,
      "Internation": 4320,
      "ål": 4321,
      "klassen": 4322,
      "tillfäll": 4323,
      "Underarter": 4324,
      "belägen": 4325,
      "##rep": 4326,
      "riksdelen": 4327,
      "##ense": 4328,
      "##ophila": 4329,
      "visar": 4330,
      "roman": 4331,
      "Eur": 4332,
      "##ali": 4333,
      "Do": 4334,
      "exempelvis": 4335,
      "Cap": 4336,
      "krist": 4337,
      "port": 4338,
      "Band": 4339,
      "##jan": 4340,
      "bror": 4341,
      "##sjö": 4342,
      "långt": 4343,
      "lätt": 4344,
      "svart": 4345,
      "häst": 4346,
      "##arb": 4347,
      "##loppet": 4348,
      "Cast": 4349,
      "Tel": 4350,
      "Don": 4351,
      "Aï": 4352,
      "ovan": 4353,
      "##ämp": 4354,
      "upptäckt": 4355,
      "##ibli": 4356,
      "##kter": 4357,
      "##på": 4358,
      "Ur": 4359,
      "priv": 4360,
      "##ates": 4361,
      "gem": 4362,
      "Hem": 4363,
      "låten": 4364,
      "James": 4365,
      "lö": 4366,
      "##ror": 4367,
      "säk": 4368,
      "fjär": 4369,
      "yta": 4370,
      "##grund": 4371,
      "Pan": 4372,
      "silver": 4373,
      "Alf": 4374,
      "Sav": 4375,
      "italien": 4376,
      "Mark": 4377,
      "politiker": 4378,
      "indiv": 4379,
      "Sl": 4380,
      "##uft": 4381,
      "ursprungligen": 4382,
      "Sel": 4383,
      "##läktet": 4384,
      "Ryss": 4385,
      "klubben": 4386,
      "ög": 4387,
      "mitten": 4388,
      "##vers": 4389,
      "Gol": 4390,
      "##ängd": 4391,
      "uppgick": 4392,
      "##stan": 4393,
      "##inge": 4394,
      "##yx": 4395,
      "spela": 4396,
      "ast": 4397,
      "mör": 4398,
      "Vi": 4399,
      "social": 4400,
      "nästan": 4401,
      "prin": 4402,
      "fransk": 4403,
      "sju": 4404,
      "##väl": 4405,
      "##skar": 4406,
      "##do": 4407,
      "##ju": 4408,
      "Pat": 4409,
      "##aea": 4410,
      "##skriv": 4411,
      "flert": 4412,
      "Eg": 4413,
      "##ennis": 4414,
      "##aggar": 4415,
      "##icola": 4416,
      "Gen": 4417,
      "##etter": 4418,
      "Cy": 4419,
      "##sked": 4420,
      "##anthus": 4421,
      "cm": 4422,
      "gräs": 4423,
      "##ni": 4424,
      "Djebel": 4425,
      "mång": 4426,
      "##hop": 4427,
      "verksamhet": 4428,
      "Fer": 4429,
      "Smith": 4430,
      "ärtväxter": 4431,
      "Kro": 4432,
      "Folk": 4433,
      "##rab": 4434,
      "##kur": 4435,
      "##useum": 4436,
      "Grand": 4437,
      "Konst": 4438,
      "Öst": 4439,
      "##erska": 4440,
      "##alj": 4441,
      "##skrift": 4442,
      "övriga": 4443,
      "##iang": 4444,
      "säll": 4445,
      "##igur": 4446,
      "Ox": 4447,
      "nig": 4448,
      "##stid": 4449,
      "hov": 4450,
      "Köp": 4451,
      "##jud": 4452,
      "fotbolls": 4453,
      "Go": 4454,
      "Sil": 4455,
      "##känd": 4456,
      "elekt": 4457,
      "##rix": 4458,
      "flock": 4459,
      "Buk": 4460,
      "kej": 4461,
      "stift": 4462,
      "Bre": 4463,
      "##maskart": 4464,
      "##īr": 4465,
      "##rak": 4466,
      "Grek": 4467,
      "igen": 4468,
      "Vall": 4469,
      "Filmen": 4470,
      "Ir": 4471,
      "vik": 4472,
      "Cla": 4473,
      "##samhet": 4474,
      "procent": 4475,
      "tar": 4476,
      "##ific": 4477,
      "förbundslandet": 4478,
      "##mål": 4479,
      "##orer": 4480,
      "Az": 4481,
      "vuxna": 4482,
      "medlemmar": 4483,
      "eff": 4484,
      "ab": 4485,
      "##köping": 4486,
      "##ve": 4487,
      "samling": 4488,
      "##lick": 4489,
      "Schweiz": 4490,
      "strid": 4491,
      "##slaget": 4492,
      "Cha": 4493,
      "##emb": 4494,
      "bek": 4495,
      "im": 4496,
      "Mil": 4497,
      "respekt": 4498,
      "##omat": 4499,
      "ren": 4500,
      "##oba": 4501,
      "##ads": 4502,
      "klar": 4503,
      "##formen": 4504,
      "färg": 4505,
      "skick": 4506,
      "##räng": 4507,
      "##HL": 4508,
      "Hyp": 4509,
      "mag": 4510,
      "##rikes": 4511,
      "oftast": 4512,
      "##vig": 4513,
      "di": 4514,
      "##urus": 4515,
      "##urt": 4516,
      "##kall": 4517,
      "mar": 4518,
      "Id": 4519,
      "##inska": 4520,
      "ålder": 4521,
      "Sta": 4522,
      "överg": 4523,
      "ej": 4524,
      "ansvar": 4525,
      "##ologiska": 4526,
      "Meg": 4527,
      "eta": 4528,
      "Peak": 4529,
      "ack": 4530,
      "##ois": 4531,
      "Lim": 4532,
      "försök": 4533,
      "##hl": 4534,
      "##åk": 4535,
      "##ipl": 4536,
      "Sul": 4537,
      "lyckades": 4538,
      "##apan": 4539,
      "liten": 4540,
      "##förs": 4541,
      "Gud": 4542,
      "Laguna": 4543,
      "kors": 4544,
      "##anna": 4545,
      "##hög": 4546,
      "##älj": 4547,
      "##ammar": 4548,
      "##ush": 4549,
      "bos": 4550,
      "relig": 4551,
      "##verket": 4552,
      "##bur": 4553,
      "Ön": 4554,
      "##oda": 4555,
      "##ūr": 4556,
      "arbete": 4557,
      "##ifrån": 4558,
      "Anna": 4559,
      "dans": 4560,
      "Namnet": 4561,
      "kär": 4562,
      "kör": 4563,
      "säsong": 4564,
      "aff": 4565,
      "bol": 4566,
      "##ague": 4567,
      "##ebygg": 4568,
      "bestäm": 4569,
      "ungdom": 4570,
      "långa": 4571,
      "##tid": 4572,
      "modern": 4573,
      "##orf": 4574,
      "Rad": 4575,
      "Na": 4576,
      "sim": 4577,
      "##område": 4578,
      "återvänd": 4579,
      "gamm": 4580,
      "##elle": 4581,
      "stjärn": 4582,
      "##ight": 4583,
      "Tanj": 4584,
      "##byggnad": 4585,
      "##ländsk": 4586,
      "dagar": 4587,
      "vanligt": 4588,
      "##etes": 4589,
      "##samlingen": 4590,
      "Martin": 4591,
      "Tri": 4592,
      "##stol": 4593,
      "##ór": 4594,
      "##tra": 4595,
      "Andra": 4596,
      "stil": 4597,
      "Luc": 4598,
      "##åten": 4599,
      "Juli": 4600,
      "dog": 4601,
      "Hein": 4602,
      "##ava": 4603,
      "##arie": 4604,
      "tradition": 4605,
      "##uts": 4606,
      "##ylt": 4607,
      "##iff": 4608,
      "läk": 4609,
      "ärtväxtart": 4610,
      "##redning": 4611,
      "Bir": 4612,
      "Ram": 4613,
      "fler": 4614,
      "uppdrag": 4615,
      "trol": 4616,
      "##ckte": 4617,
      "Ga": 4618,
      "##till": 4619,
      "##ange": 4620,
      "##add": 4621,
      "##ior": 4622,
      "##jung": 4623,
      "##oper": 4624,
      "##kta": 4625,
      "##otus": 4626,
      "aktiv": 4627,
      "regiss": 4628,
      "tillhörde": 4629,
      "Dol": 4630,
      "##uva": 4631,
      "deltag": 4632,
      "Tam": 4633,
      "Göteborgs": 4634,
      "politiska": 4635,
      "Tanjung": 4636,
      "##seende": 4637,
      "guvernementet": 4638,
      "##ère": 4639,
      "dvärgstritar": 4640,
      "ville": 4641,
      "post": 4642,
      "##iskop": 4643,
      "##wan": 4644,
      "fj": 4645,
      "##ivå": 4646,
      "##uta": 4647,
      "uppfördes": 4648,
      "##emokrat": 4649,
      "##omyc": 4650,
      "Ang": 4651,
      "stark": 4652,
      "landskommun": 4653,
      "Maj": 4654,
      "##edel": 4655,
      "Vict": 4656,
      "Vill": 4657,
      "pat": 4658,
      "biart": 4659,
      "färd": 4660,
      "klä": 4661,
      "Arroyo": 4662,
      "##cho": 4663,
      "säga": 4664,
      "##film": 4665,
      "haft": 4666,
      "##ael": 4667,
      "Van": 4668,
      "ish": 4669,
      "röst": 4670,
      "tag": 4671,
      "Aires": 4672,
      "##ktor": 4673,
      "Kam": 4674,
      "arean": 4675,
      "##oster": 4676,
      "anspråk": 4677,
      "##own": 4678,
      "orsak": 4679,
      "dubb": 4680,
      "##illnad": 4681,
      "högre": 4682,
      "Buenos": 4683,
      "Mü": 4684,
      "Christian": 4685,
      "##skri": 4686,
      "##arlament": 4687,
      "prefekt": 4688,
      "central": 4689,
      "##vingar": 4690,
      "##olv": 4691,
      "##ulerade": 4692,
      "vanlig": 4693,
      "Pier": 4694,
      "anses": 4695,
      "##vampar": 4696,
      "Bas": 4697,
      "##baggar": 4698,
      "##enten": 4699,
      "brittiska": 4700,
      "Centra": 4701,
      "Stora": 4702,
      "der": 4703,
      "exp": 4704,
      "##cu": 4705,
      "Hed": 4706,
      "##tr": 4707,
      "brö": 4708,
      "funkt": 4709,
      "Lappland": 4710,
      "indel": 4711,
      "Anton": 4712,
      "University": 4713,
      "Aïn": 4714,
      "björ": 4715,
      "Com": 4716,
      "fartyg": 4717,
      "Ax": 4718,
      "##ruz": 4719,
      "bost": 4720,
      "Da": 4721,
      "Richard": 4722,
      "##be": 4723,
      "kand": 4724,
      "##usten": 4725,
      "##iti": 4726,
      "vapen": 4727,
      "##röv": 4728,
      "ne": 4729,
      "##ín": 4730,
      "Red": 4731,
      "##öarna": 4732,
      "##ägg": 4733,
      "##agu": 4734,
      "##iforn": 4735,
      "Gora": 4736,
      "tim": 4737,
      "gård": 4738,
      "ass": 4739,
      "avled": 4740,
      "varandra": 4741,
      "Lept": 4742,
      "##ästerskap": 4743,
      "Fa": 4744,
      "omfattar": 4745,
      "sem": 4746,
      "Att": 4747,
      "##nast": 4748,
      "brack": 4749,
      "startade": 4750,
      "Timur": 4751,
      "åtta": 4752,
      "##stitut": 4753,
      "Ven": 4754,
      "Ni": 4755,
      "Saraj": 4756,
      "Hal": 4757,
      "förhåll": 4758,
      "Fre": 4759,
      "ännu": 4760,
      "problem": 4761,
      "##arten": 4762,
      "##hem": 4763,
      "##illo": 4764,
      "Staden": 4765,
      "##ands": 4766,
      "ros": 4767,
      "grevskapet": 4768,
      "League": 4769,
      "##shus": 4770,
      "liksom": 4771,
      "materi": 4772,
      "avs": 4773,
      "##dar": 4774,
      "Rik": 4775,
      "härad": 4776,
      "Liban": 4777,
      "##ić": 4778,
      "övert": 4779,
      "##organis": 4780,
      "spelare": 4781,
      "Sarajevo": 4782,
      "##asp": 4783,
      "Cro": 4784,
      "utom": 4785,
      "##asc": 4786,
      "##oro": 4787,
      "kara": 4788,
      "Lep": 4789,
      "bracksteklar": 4790,
      "##anan": 4791,
      "förl": 4792,
      "Grekland": 4793,
      "Eli": 4794,
      "##wig": 4795,
      "Kong": 4796,
      "##ule": 4797,
      "##eria": 4798,
      "Pu": 4799,
      "##kra": 4800,
      "Grön": 4801,
      "laget": 4802,
      "##estiv": 4803,
      "Tre": 4804,
      "Ryssland": 4805,
      "serie": 4806,
      "Walk": 4807,
      "Trich": 4808,
      "##ställning": 4809,
      "##spinnare": 4810,
      "Sund": 4811,
      "long": 4812,
      "Ker": 4813,
      "medverkade": 4814,
      "##unnit": 4815,
      "trots": 4816,
      "Lago": 4817,
      "rö": 4818,
      "##ringar": 4819,
      "funger": 4820,
      "##mare": 4821,
      "##arken": 4822,
      "##unc": 4823,
      "mac": 4824,
      "Ke": 4825,
      "##osc": 4826,
      "##uba": 4827,
      "Ple": 4828,
      "Tra": 4829,
      "##way": 4830,
      "##bok": 4831,
      "Mur": 4832,
      "ingick": 4833,
      "##nare": 4834,
      "##nsp": 4835,
      "##lingen": 4836,
      "text": 4837,
      "Mu": 4838,
      "tio": 4839,
      "effekt": 4840,
      "Ast": 4841,
      "##we": 4842,
      "föddes": 4843,
      "##inc": 4844,
      "Hög": 4845,
      "##histor": 4846,
      "No": 4847,
      "##inen": 4848,
      "##hu": 4849,
      "Genom": 4850,
      "##rättades": 4851,
      "Rep": 4852,
      "Adolf": 4853,
      "##rov": 4854,
      "sommarspelen": 4855,
      "respektive": 4856,
      "bo": 4857,
      "järnväg": 4858,
      "gavs": 4859,
      "Lan": 4860,
      "##sländeart": 4861,
      "släkt": 4862,
      "Lev": 4863,
      "##enser": 4864,
      "föränd": 4865,
      "flertal": 4866,
      "europ": 4867,
      "ås": 4868,
      "hund": 4869,
      "##last": 4870,
      "begrav": 4871,
      "Bal": 4872,
      "Bill": 4873,
      "##sländor": 4874,
      "Ku": 4875,
      "##ield": 4876,
      "Maur": 4877,
      "tilldel": 4878,
      "Gal": 4879,
      "lika": 4880,
      "dels": 4881,
      "##kel": 4882,
      "insp": 4883,
      "##ensam": 4884,
      "jag": 4885,
      "##stein": 4886,
      "mö": 4887,
      "Ob": 4888,
      "kopp": 4889,
      "##ht": 4890,
      "##let": 4891,
      "bestod": 4892,
      "Anders": 4893,
      "##esc": 4894,
      "##juk": 4895,
      "efterträd": 4896,
      "##skatt": 4897,
      "Od": 4898,
      "norm": 4899,
      "Sä": 4900,
      "Bon": 4901,
      "##ugg": 4902,
      "medic": 4903,
      "Leon": 4904,
      "Phyll": 4905,
      "##ktär": 4906,
      "##ory": 4907,
      "förklar": 4908,
      "##länder": 4909,
      "##ynta": 4910,
      "##atern": 4911,
      "internationella": 4912,
      "##xa": 4913,
      "Befolkningen": 4914,
      "##ise": 4915,
      "##sled": 4916,
      "jud": 4917,
      "##anten": 4918,
      "##oe": 4919,
      "fråg": 4920,
      "trafik": 4921,
      "##rust": 4922,
      "##fåg": 4923,
      "flockblomm": 4924,
      "##cess": 4925,
      "##cip": 4926,
      "Skån": 4927,
      "##skaper": 4928,
      "##inea": 4929,
      "##issa": 4930,
      "motor": 4931,
      "Cent": 4932,
      "Por": 4933,
      "uppmärk": 4934,
      "##full": 4935,
      "formula": 4936,
      "##aväxter": 4937,
      "Nu": 4938,
      "yng": 4939,
      "Johannes": 4940,
      "##ben": 4941,
      "använda": 4942,
      "Magn": 4943,
      "tving": 4944,
      "luft": 4945,
      "astron": 4946,
      "användas": 4947,
      "läns": 4948,
      "##derna": 4949,
      "##ogon": 4950,
      "##lund": 4951,
      "Sab": 4952,
      "##oa": 4953,
      "ton": 4954,
      "dikt": 4955,
      "Il": 4956,
      "själva": 4957,
      "##edde": 4958,
      "dessutom": 4959,
      "avsnitt": 4960,
      "##språk": 4961,
      "##ze": 4962,
      "sid": 4963,
      "##len": 4964,
      "Mellan": 4965,
      "##idium": 4966,
      "Hom": 4967,
      "on": 4968,
      "länet": 4969,
      "##marker": 4970,
      "Max": 4971,
      "##allen": 4972,
      "Antarktis": 4973,
      "fly": 4974,
      "##uella": 4975,
      "inf": 4976,
      "Andre": 4977,
      "##zo": 4978,
      "Pul": 4979,
      "##räv": 4980,
      "sur": 4981,
      "##ania": 4982,
      "##ligg": 4983,
      "III": 4984,
      "stats": 4985,
      "##itis": 4986,
      "disk": 4987,
      "ackum": 4988,
      "result": 4989,
      "##ibliotek": 4990,
      "nummer": 4991,
      "Lab": 4992,
      "invig": 4993,
      "Hennes": 4994,
      "Wales": 4995,
      "##äld": 4996,
      "##bi": 4997,
      "##aller": 4998,
      "##annen": 4999,
      "##ment": 5000,
      "fred": 5001,
      "##årds": 5002,
      "##cke": 5003,
      "artik": 5004,
      "lät": 5005,
      "##ikanska": 5006,
      "Rap": 5007,
      "topp": 5008,
      "Rob": 5009,
      "Rock": 5010,
      "##ili": 5011,
      "grek": 5012,
      "Kap": 5013,
      "spelat": 5014,
      "##aster": 5015,
      "utnämnd": 5016,
      "Pla": 5017,
      "skilj": 5018,
      "Vel": 5019,
      "##yggnad": 5020,
      "kallades": 5021,
      "ap": 5022,
      "Västra": 5023,
      "titeln": 5024,
      "##ärt": 5025,
      "fys": 5026,
      "##iber": 5027,
      "##amo": 5028,
      "klock": 5029,
      "Mas": 5030,
      "Tom": 5031,
      "dok": 5032,
      "##roller": 5033,
      "Tet": 5034,
      "offent": 5035,
      "##eland": 5036,
      "##emot": 5037,
      "##zh": 5038,
      "försvar": 5039,
      "ryska": 5040,
      "##aväxtart": 5041,
      "##orum": 5042,
      "##ansson": 5043,
      "relat": 5044,
      "spår": 5045,
      "##ogen": 5046,
      "student": 5047,
      "skol": 5048,
      "con": 5049,
      "meddel": 5050,
      "Dag": 5051,
      "Pot": 5052,
      "starkt": 5053,
      "Bea": 5054,
      "match": 5055,
      "Vil": 5056,
      "##emål": 5057,
      "Black": 5058,
      "Rec": 5059,
      "råd": 5060,
      "##föra": 5061,
      "ackumulerade": 5062,
      "##ensen": 5063,
      "Henrik": 5064,
      "##ovo": 5065,
      "Litt": 5066,
      "kur": 5067,
      "nådde": 5068,
      "##rottning": 5069,
      "bytt": 5070,
      "Sjö": 5071,
      "tri": 5072,
      "regeringen": 5073,
      "##smin": 5074,
      "War": 5075,
      "togs": 5076,
      "##osition": 5077,
      "Soc": 5078,
      "##staur": 5079,
      "Gab": 5080,
      "##ington": 5081,
      "brittisk": 5082,
      "Seoul": 5083,
      "Ghar": 5084,
      "Aten": 5085,
      "beteck": 5086,
      "##akten": 5087,
      "växte": 5088,
      "Otto": 5089,
      "##opus": 5090,
      "entiteten": 5091,
      "##ranger": 5092,
      "Ped": 5093,
      "rym": 5094,
      "Part": 5095,
      "Alto": 5096,
      "##ältet": 5097,
      "bakom": 5098,
      "##odde": 5099,
      "##ipes": 5100,
      "##ye": 5101,
      "sand": 5102,
      "låtar": 5103,
      "Eup": 5104,
      "##ifolia": 5105,
      "civ": 5106,
      "eget": 5107,
      "komma": 5108,
      "Någ": 5109,
      "##äcken": 5110,
      "drog": 5111,
      "egent": 5112,
      "##teck": 5113,
      "scen": 5114,
      "##astor": 5115,
      "Nik": 5116,
      "Walker": 5117,
      "##olis": 5118,
      "##blom": 5119,
      "##skär": 5120,
      "Japan": 5121,
      "##gu": 5122,
      "använder": 5123,
      "##heim": 5124,
      "##hur": 5125,
      "Albert": 5126,
      "##ool": 5127,
      "##läm": 5128,
      "Bat": 5129,
      "##öka": 5130,
      "as": 5131,
      "Barat": 5132,
      "Spel": 5133,
      "##ids": 5134,
      "boken": 5135,
      "motsvar": 5136,
      "upplag": 5137,
      "grupper": 5138,
      "Ken": 5139,
      "föres": 5140,
      "debut": 5141,
      "psyk": 5142,
      "##reter": 5143,
      "fågel": 5144,
      "sida": 5145,
      "räknas": 5146,
      "Hyd": 5147,
      "Kungliga": 5148,
      "Call": 5149,
      "##mel": 5150,
      "##reh": 5151,
      "visade": 5152,
      "polis": 5153,
      "##räk": 5154,
      "fotbollsspelare": 5155,
      "##ür": 5156,
      "fäng": 5157,
      "Utb": 5158,
      "dansk": 5159,
      "skillnad": 5160,
      "gemensam": 5161,
      "mel": 5162,
      "##namn": 5163,
      "##river": 5164,
      "##vs": 5165,
      "mott": 5166,
      "##oli": 5167,
      "##itu": 5168,
      "uppst": 5169,
      "Stef": 5170,
      "fjärde": 5171,
      "Far": 5172,
      "##win": 5173,
      "Området": 5174,
      "##iller": 5175,
      "Eu": 5176,
      "somm": 5177,
      "##ulpt": 5178,
      "påverk": 5179,
      "Marie": 5180,
      "Ze": 5181,
      "##wood": 5182,
      "herr": 5183,
      "##roph": 5184,
      "##iell": 5185,
      "myn": 5186,
      "##köpings": 5187,
      "##alia": 5188,
      "gammal": 5189,
      "##asan": 5190,
      "##flyg": 5191,
      "##ademien": 5192,
      "punkt": 5193,
      "##uth": 5194,
      "##rypt": 5195,
      "betrakt": 5196,
      "##eira": 5197,
      "Eric": 5198,
      "##rodukt": 5199,
      "vanligen": 5200,
      "kontrakt": 5201,
      "Cop": 5202,
      "##anen": 5203,
      "självständ": 5204,
      "Asp": 5205,
      "äldsta": 5206,
      "##onien": 5207,
      "##änner": 5208,
      "fång": 5209,
      "Stud": 5210,
      "förlorade": 5211,
      "Oc": 5212,
      "##skott": 5213,
      "Arm": 5214,
      "märk": 5215,
      "##erats": 5216,
      "##korea": 5217,
      "##lipp": 5218,
      "Tak": 5219,
      "talets": 5220,
      "Kor": 5221,
      "Angel": 5222,
      "Lov": 5223,
      "Heinrich": 5224,
      "Kyrk": 5225,
      "od": 5226,
      "driv": 5227,
      "ihop": 5228,
      "##ryp": 5229,
      "##ryt": 5230,
      "##sted": 5231,
      "liknande": 5232,
      "heter": 5233,
      "##ocarp": 5234,
      "Olof": 5235,
      "såg": 5236,
      "Flor": 5237,
      "Rib": 5238,
      "##isten": 5239,
      "Nic": 5240,
      "Grande": 5241,
      "##grä": 5242,
      "Queens": 5243,
      "##sw": 5244,
      "Utöver": 5245,
      "återvände": 5246,
      "##emang": 5247,
      "vari": 5248,
      "dr": 5249,
      "gjordes": 5250,
      "handlar": 5251,
      "längs": 5252,
      "tän": 5253,
      "##ournalist": 5254,
      "##ited": 5255,
      "##urn": 5256,
      "##usen": 5257,
      "samhället": 5258,
      "Rid": 5259,
      "##burg": 5260,
      "##lv": 5261,
      "ägde": 5262,
      "Holm": 5263,
      "##gruppen": 5264,
      "##önster": 5265,
      "##egel": 5266,
      "##edd": 5267,
      "minst": 5268,
      "sh": 5269,
      "##onis": 5270,
      "Därefter": 5271,
      "##kont": 5272,
      "Pasir": 5273,
      "Sn": 5274,
      "##ygger": 5275,
      "Lor": 5276,
      "bidrag": 5277,
      "Cór": 5278,
      "Little": 5279,
      "ann": 5280,
      "Bry": 5281,
      "Cat": 5282,
      "insekter": 5283,
      "##enskt": 5284,
      "Point": 5285,
      "främsta": 5286,
      "##serv": 5287,
      "länge": 5288,
      "Tar": 5289,
      "##inger": 5290,
      "betyder": 5291,
      "Libanon": 5292,
      "gym": 5293,
      "gäller": 5294,
      "Pen": 5295,
      "##ingo": 5296,
      "Sig": 5297,
      "##idi": 5298,
      "##huvud": 5299,
      "betydelse": 5300,
      "##orr": 5301,
      "##system": 5302,
      "##atten": 5303,
      "##hark": 5304,
      "regi": 5305,
      "##eus": 5306,
      "Mol": 5307,
      "##ville": 5308,
      "omfattande": 5309,
      "företaget": 5310,
      "leg": 5311,
      "domin": 5312,
      "hust": 5313,
      "lärare": 5314,
      "Divis": 5315,
      "upptäcktes": 5316,
      "ishockey": 5317,
      "aut": 5318,
      "##osh": 5319,
      "dåvarande": 5320,
      "##vä": 5321,
      "##ony": 5322,
      "##amin": 5323,
      "Liv": 5324,
      "teater": 5325,
      "danska": 5326,
      "Jon": 5327,
      "##ypt": 5328,
      "##ophora": 5329,
      "enbart": 5330,
      "##sven": 5331,
      "Glac": 5332,
      "industri": 5333,
      "gränsen": 5334,
      "##örer": 5335,
      "vinter": 5336,
      "Kur": 5337,
      "##styr": 5338,
      "Bukit": 5339,
      "präst": 5340,
      "##brott": 5341,
      "##zon": 5342,
      "förest": 5343,
      "Jer": 5344,
      "böcker": 5345,
      "sett": 5346,
      "Ele": 5347,
      "##osus": 5348,
      "Sang": 5349,
      "Handling": 5350,
      "skolan": 5351,
      "##du": 5352,
      "fört": 5353,
      "prote": 5354,
      "##rarna": 5355,
      "Fal": 5356,
      "##jul": 5357,
      "##yb": 5358,
      "bär": 5359,
      "##yggnaden": 5360,
      "säker": 5361,
      "sjukdom": 5362,
      "##ki": 5363,
      "nere": 5364,
      "Daniel": 5365,
      "Tang": 5366,
      "frå": 5367,
      "##sons": 5368,
      "Jack": 5369,
      "Kir": 5370,
      "##īn": 5371,
      "##yph": 5372,
      "##ision": 5373,
      "##gården": 5374,
      "##enhamn": 5375,
      "träff": 5376,
      "if": 5377,
      "borg": 5378,
      "brott": 5379,
      "##fte": 5380,
      "Stor": 5381,
      "##ingart": 5382,
      "konta": 5383,
      "Ana": 5384,
      "Brun": 5385,
      "##vall": 5386,
      "kanal": 5387,
      "dat": 5388,
      "##sut": 5389,
      "##ilia": 5390,
      "vä": 5391,
      "skedde": 5392,
      "Matt": 5393,
      "##idia": 5394,
      "uppe": 5395,
      "allts": 5396,
      "Köpenhamn": 5397,
      "hotad": 5398,
      "##innes": 5399,
      "debuterade": 5400,
      "##uca": 5401,
      "Samt": 5402,
      "litteratur": 5403,
      "##tag": 5404,
      "th": 5405,
      "##ty": 5406,
      "skydd": 5407,
      "##oceph": 5408,
      "general": 5409,
      "parti": 5410,
      "karaktär": 5411,
      "rest": 5412,
      "##yntaxa": 5413,
      "Dyntaxa": 5414,
      "Osc": 5415,
      "##iter": 5416,
      "Plan": 5417,
      "rund": 5418,
      "Glacier": 5419,
      "##uvel": 5420,
      "Jes": 5421,
      "Pre": 5422,
      "tidigt": 5423,
      "hum": 5424,
      "gul": 5425,
      "##idat": 5426,
      "Michael": 5427,
      "##höll": 5428,
      "tjänstg": 5429,
      "täck": 5430,
      "##ame": 5431,
      "José": 5432,
      "sold": 5433,
      "hår": 5434,
      "närmaste": 5435,
      "##ynch": 5436,
      "gud": 5437,
      "##ophyllum": 5438,
      "##reterare": 5439,
      "##harkran": 5440,
      "alltid": 5441,
      "##nspinnare": 5442,
      "mis": 5443,
      "björnspinnare": 5444,
      "Dep": 5445,
      "##eldjursart": 5446,
      "snabbt": 5447,
      "häl": 5448,
      "##ifier": 5449,
      "##harkrankar": 5450,
      "##fört": 5451,
      "Blan": 5452,
      "Eug": 5453,
      "sydöst": 5454,
      "just": 5455,
      "allra": 5456,
      "såväl": 5457,
      "påb": 5458,
      "Sydney": 5459,
      "ov": 5460,
      "##fli": 5461,
      "sjöarna": 5462,
      "##elen": 5463,
      "##hang": 5464,
      "##uper": 5465,
      "Jebel": 5466,
      "##une": 5467,
      "Pter": 5468,
      "##sväxter": 5469,
      "Tjeck": 5470,
      "Tab": 5471,
      "inspel": 5472,
      "git": 5473,
      "##ote": 5474,
      "Der": 5475,
      "händ": 5476,
      "##ubben": 5477,
      "profession": 5478,
      "National": 5479,
      "##mästare": 5480,
      "Pierre": 5481,
      "##II": 5482,
      "##ink": 5483,
      "##punkt": 5484,
      "ly": 5485,
      "##rym": 5486,
      "Fram": 5487,
      "tör": 5488,
      "##hard": 5489,
      "##enia": 5490,
      "version": 5491,
      "koll": 5492,
      "Sankt": 5493,
      "Prin": 5494,
      "##shire": 5495,
      "##si": 5496,
      "##pa": 5497,
      "Ludwig": 5498,
      "affär": 5499,
      "framgångs": 5500,
      "##åning": 5501,
      "##mär": 5502,
      "Heter": 5503,
      "soci": 5504,
      "bevar": 5505,
      "##ital": 5506,
      "United": 5507,
      "Många": 5508,
      "Mak": 5509,
      "Ass": 5510,
      "##riska": 5511,
      "brons": 5512,
      "ro": 5513,
      "Bris": 5514,
      "valde": 5515,
      "centrum": 5516,
      "landets": 5517,
      "Neder": 5518,
      "##onde": 5519,
      "##zi": 5520,
      "##räckligt": 5521,
      "Utloppet": 5522,
      "##oret": 5523,
      "Bru": 5524,
      "flott": 5525,
      "Queensland": 5526,
      "Mars": 5527,
      "Senare": 5528,
      "##chn": 5529,
      "filmer": 5530,
      "alltså": 5531,
      "rapp": 5532,
      "Små": 5533,
      "##nst": 5534,
      "Aph": 5535,
      "mera": 5536,
      "##press": 5537,
      "##ensk": 5538,
      "##ebb": 5539,
      "Mah": 5540,
      "##ords": 5541,
      "##udd": 5542,
      "vitt": 5543,
      "ill": 5544,
      "##emente": 5545,
      "mångfot": 5546,
      "erb": 5547,
      "##ivi": 5548,
      "tyd": 5549,
      "##rass": 5550,
      "Bei": 5551,
      "börjar": 5552,
      "Kroat": 5553,
      "##ques": 5554,
      "##pris": 5555,
      "Tv": 5556,
      "##öts": 5557,
      "##unionen": 5558,
      "to": 5559,
      "##cel": 5560,
      "##sväxtart": 5561,
      "Bab": 5562,
      "armén": 5563,
      "Pod": 5564,
      "##demokrat": 5565,
      "##öjt": 5566,
      "##ogl": 5567,
      "fakt": 5568,
      "beseg": 5569,
      "Kol": 5570,
      "Bag": 5571,
      "Grönland": 5572,
      "grå": 5573,
      "##ension": 5574,
      "bildade": 5575,
      "utbildning": 5576,
      "Dessutom": 5577,
      "tunn": 5578,
      "Ren": 5579,
      "känt": 5580,
      "Sj": 5581,
      "##chef": 5582,
      "##ude": 5583,
      "##ivet": 5584,
      "##formation": 5585,
      "Champ": 5586,
      "ursprungliga": 5587,
      "Alfred": 5588,
      "##ŏng": 5589,
      "troligen": 5590,
      "lopp": 5591,
      "##örts": 5592,
      "Moh": 5593,
      "tills": 5594,
      "ses": 5595,
      "Monte": 5596,
      "##löss": 5597,
      "##ertig": 5598,
      "ko": 5599,
      "##amerika": 5600,
      "Värm": 5601,
      "Trots": 5602,
      "delvis": 5603,
      "Sovjet": 5604,
      "regel": 5605,
      "##kes": 5606,
      "måreväxter": 5607,
      "kronor": 5608,
      "Magnus": 5609,
      "Beng": 5610,
      "##bara": 5611,
      "Bah": 5612,
      "##ifter": 5613,
      "##yi": 5614,
      "##ssk": 5615,
      "##ternat": 5616,
      "etabl": 5617,
      "Feder": 5618,
      "Cam": 5619,
      "##lare": 5620,
      "restaur": 5621,
      "##arat": 5622,
      "##mossart": 5623,
      "##förbundet": 5624,
      "asteroid": 5625,
      "Andersson": 5626,
      "##akes": 5627,
      "Boliv": 5628,
      "forn": 5629,
      "Phou": 5630,
      "ljud": 5631,
      "bosatt": 5632,
      "Vin": 5633,
      "##ösa": 5634,
      "Hus": 5635,
      "Long": 5636,
      "Reserv": 5637,
      "Tengah": 5638,
      "her": 5639,
      "ledare": 5640,
      "Got": 5641,
      "##komst": 5642,
      "##chi": 5643,
      "##hav": 5644,
      "drag": 5645,
      "Australia": 5646,
      "Santo": 5647,
      "park": 5648,
      "bladmossart": 5649,
      "månader": 5650,
      "konkur": 5651,
      "Ali": 5652,
      "skär": 5653,
      "blom": 5654,
      "Cup": 5655,
      "To": 5656,
      "energ": 5657,
      "Ras": 5658,
      "##ästerskapet": 5659,
      "parlament": 5660,
      "spors": 5661,
      "besök": 5662,
      "Historik": 5663,
      "##qvist": 5664,
      "May": 5665,
      "amb": 5666,
      "Shan": 5667,
      "##rob": 5668,
      "Kin": 5669,
      "Ig": 5670,
      "##ration": 5671,
      "partiet": 5672,
      "##antarktis": 5673,
      "##botten": 5674,
      "sporsäcks": 5675,
      "##kort": 5676,
      "Åbo": 5677,
      "defin": 5678,
      "huset": 5679,
      "pap": 5680,
      "sporsäcksvampar": 5681,
      "##rof": 5682,
      "Pel": 5683,
      "##åndet": 5684,
      "Räknas": 5685,
      "strax": 5686,
      "sammans": 5687,
      "Koudiat": 5688,
      "blod": 5689,
      "##bane": 5690,
      "orig": 5691,
      "Lar": 5692,
      "Utbredning": 5693,
      "Jar": 5694,
      "pastor": 5695,
      "##anes": 5696,
      "##tera": 5697,
      "##lära": 5698,
      "hölls": 5699,
      "Alla": 5700,
      "Wal": 5701,
      "##ismen": 5702,
      "vå": 5703,
      "blå": 5704,
      "institut": 5705,
      "Domin": 5706,
      "God": 5707,
      "##oken": 5708,
      "Församlingen": 5709,
      "##mor": 5710,
      "##ylla": 5711,
      "Väster": 5712,
      "katol": 5713,
      "juvel": 5714,
      "##ningsp": 5715,
      "mask": 5716,
      "uppf": 5717,
      "mängd": 5718,
      "Jacob": 5719,
      "##aca": 5720,
      "##bro": 5721,
      "fortsätt": 5722,
      "Nat": 5723,
      "Mos": 5724,
      "bygga": 5725,
      "följd": 5726,
      "International": 5727,
      "ep": 5728,
      "##ces": 5729,
      "##områden": 5730,
      "norska": 5731,
      "Gil": 5732,
      "##usk": 5733,
      "räd": 5734,
      "##adens": 5735,
      "bodde": 5736,
      "fas": 5737,
      "Wor": 5738,
      "##ättre": 5739,
      "##ny": 5740,
      "flav": 5741,
      "räk": 5742,
      "Char": 5743,
      "snart": 5744,
      "viktig": 5745,
      "##ations": 5746,
      "Bad": 5747,
      "Herr": 5748,
      "##olont": 5749,
      "Tex": 5750,
      "världens": 5751,
      "uppkall": 5752,
      "qu": 5753,
      "##rol": 5754,
      "##han": 5755,
      "##uda": 5756,
      "arranger": 5757,
      "påbörj": 5758,
      "ig": 5759,
      "Lill": 5760,
      "armé": 5761,
      "idrott": 5762,
      "arbeten": 5763,
      "lades": 5764,
      "##terade": 5765,
      "Ran": 5766,
      "major": 5767,
      "finalen": 5768,
      "##minister": 5769,
      "drabb": 5770,
      "##iger": 5771,
      "fyl": 5772,
      "höga": 5773,
      "##atis": 5774,
      "##onta": 5775,
      "mynd": 5776,
      "Sof": 5777,
      "##vo": 5778,
      "##uma": 5779,
      "använde": 5780,
      "##hall": 5781,
      "modell": 5782,
      "Ah": 5783,
      "Kaliforn": 5784,
      "##stående": 5785,
      "##alar": 5786,
      "##ornis": 5787,
      "rec": 5788,
      "Hor": 5789,
      "ole": 5790,
      "##råket": 5791,
      "Stefan": 5792,
      "##gas": 5793,
      "Roy": 5794,
      "avrinningsområdena": 5795,
      "Ober": 5796,
      "inflyt": 5797,
      "grundade": 5798,
      "Wall": 5799,
      "Holl": 5800,
      "syster": 5801,
      "Följ": 5802,
      "brukar": 5803,
      "Tro": 5804,
      "föräld": 5805,
      "##din": 5806,
      "bättre": 5807,
      "special": 5808,
      "Nils": 5809,
      "##gatan": 5810,
      "Henri": 5811,
      "rock": 5812,
      "##bit": 5813,
      "##öns": 5814,
      "##tina": 5815,
      "##rah": 5816,
      "Inom": 5817,
      "Les": 5818,
      "##orin": 5819,
      "imp": 5820,
      "valet": 5821,
      "kust": 5822,
      "Amer": 5823,
      "diam": 5824,
      "##ocent": 5825,
      "##eps": 5826,
      "Huvud": 5827,
      "prefekturen": 5828,
      "måreväxtart": 5829,
      "Hav": 5830,
      "häck": 5831,
      "##iske": 5832,
      "hösten": 5833,
      "Ell": 5834,
      "Py": 5835,
      "sker": 5836,
      "byn": 5837,
      "Sur": 5838,
      "##icum": 5839,
      "demokrat": 5840,
      "Jord": 5841,
      "gall": 5842,
      "##ativ": 5843,
      "landskap": 5844,
      "Bolivia": 5845,
      "##angel": 5846,
      "##ager": 5847,
      "##eda": 5848,
      "sprid": 5849,
      "##ertid": 5850,
      "valdes": 5851,
      "Oph": 5852,
      "##ūn": 5853,
      "Iran": 5854,
      "Brdo": 5855,
      "Tillsammans": 5856,
      "##emplar": 5857,
      "kungen": 5858,
      "##di": 5859,
      "pseud": 5860,
      "##etag": 5861,
      "makt": 5862,
      "territ": 5863,
      "Öv": 5864,
      "##länderna": 5865,
      "Hab": 5866,
      "slog": 5867,
      "pot": 5868,
      "Stad": 5869,
      "##any": 5870,
      "Das": 5871,
      "Borg": 5872,
      "stadens": 5873,
      "##idrott": 5874,
      "##andard": 5875,
      "##rost": 5876,
      "##lus": 5877,
      "##isch": 5878,
      "##ás": 5879,
      "ras": 5880,
      "##go": 5881,
      "Central": 5882,
      "Vis": 5883,
      "Freder": 5884,
      "Kalifornien": 5885,
      "##iot": 5886,
      "innebar": 5887,
      "stället": 5888,
      "represent": 5889,
      "Pulau": 5890,
      "ringmaskart": 5891,
      "Öreb": 5892,
      "##orh": 5893,
      "##rego": 5894,
      "##osia": 5895,
      "bit": 5896,
      "eröv": 5897,
      "sommaren": 5898,
      "benäm": 5899,
      "Brisbane": 5900,
      "##ärd": 5901,
      "##gången": 5902,
      "pil": 5903,
      "kommuner": 5904,
      "Mun": 5905,
      "##field": 5906,
      "##fri": 5907,
      "oleander": 5908,
      "Kroatien": 5909,
      "Cas": 5910,
      "skriven": 5911,
      "mångfotingart": 5912,
      "##lans": 5913,
      "vattendraget": 5914,
      "Serra": 5915,
      "##jo": 5916,
      "engelsk": 5917,
      "Administrativ": 5918,
      "funktion": 5919,
      "##ligheten": 5920,
      "syft": 5921,
      "##ellertid": 5922,
      "##ylus": 5923,
      "##escens": 5924,
      "Några": 5925,
      "tåg": 5926,
      "Ungern": 5927,
      "utnämndes": 5928,
      "juvelvingar": 5929,
      "samarbete": 5930,
      "##zz": 5931,
      "fatt": 5932,
      "lant": 5933,
      "##arina": 5934,
      "Bert": 5935,
      "uppskatt": 5936,
      "##examen": 5937,
      "kost": 5938,
      "##klag": 5939,
      "Ann": 5940,
      "##emon": 5941,
      "##eringar": 5942,
      "##aktör": 5943,
      "##napp": 5944,
      "Pri": 5945,
      "##eral": 5946,
      "kommunal": 5947,
      "skad": 5948,
      "utgörs": 5949,
      "Egyp": 5950,
      "##räg": 5951,
      "samtliga": 5952,
      "##ektor": 5953,
      "##itets": 5954,
      "Ten": 5955,
      "Du": 5956,
      "Bez": 5957,
      "tolk": 5958,
      "Scot": 5959,
      "Not": 5960,
      "##sel": 5961,
      "Skott": 5962,
      "##hidae": 5963,
      "yngre": 5964,
      "vita": 5965,
      "tilldelades": 5966,
      "##tar": 5967,
      "##upen": 5968,
      "Division": 5969,
      "undervis": 5970,
      "förste": 5971,
      "Tidigare": 5972,
      "Egypten": 5973,
      "##läck": 5974,
      "##alan": 5975,
      "Kristian": 5976,
      "arbetar": 5977,
      "beroende": 5978,
      "Gi": 5979,
      "avvattnas": 5980,
      "finans": 5981,
      "Suc": 5982,
      "inrättades": 5983,
      "Cañ": 5984,
      "Stat": 5985,
      "##ary": 5986,
      "##ersk": 5987,
      "Leuc": 5988,
      "São": 5989,
      "Örebro": 5990,
      "gran": 5991,
      "utsågs": 5992,
      "material": 5993,
      "föreg": 5994,
      "Pass": 5995,
      "##änna": 5996,
      "##egro": 5997,
      "skrivit": 5998,
      "begräns": 5999,
      "Rod": 6000,
      "##aland": 6001,
      "parasit": 6002,
      "##olax": 6003,
      "emot": 6004,
      "icke": 6005,
      "nordvästlig": 6006,
      "journalist": 6007,
      "##iensis": 6008,
      "rov": 6009,
      "anslut": 6010,
      "##istisk": 6011,
      "Polen": 6012,
      "lav": 6013,
      "Bell": 6014,
      "##odor": 6015,
      "vir": 6016,
      "Es": 6017,
      "##ornet": 6018,
      "##ordon": 6019,
      "End": 6020,
      "wadi": 6021,
      "ident": 6022,
      "Dic": 6023,
      "följde": 6024,
      "kombin": 6025,
      "Musik": 6026,
      "Margar": 6027,
      "Zag": 6028,
      "##iop": 6029,
      "##wn": 6030,
      "fören": 6031,
      "begrepp": 6032,
      "##bildning": 6033,
      "##acker": 6034,
      "tidningen": 6035,
      "og": 6036,
      "##pe": 6037,
      "singel": 6038,
      "magn": 6039,
      "Ref": 6040,
      "privat": 6041,
      "Córrego": 6042,
      "##hopp": 6043,
      "tak": 6044,
      "##gara": 6045,
      "##kare": 6046,
      "Si": 6047,
      "titel": 6048,
      "Seg": 6049,
      "snäck": 6050,
      "möjligt": 6051,
      "kamp": 6052,
      "ledning": 6053,
      "medeltida": 6054,
      "flygplan": 6055,
      "skapa": 6056,
      "Cab": 6057,
      "tel": 6058,
      "lå": 6059,
      "platsen": 6060,
      "##osoma": 6061,
      "Brand": 6062,
      "##cht": 6063,
      "Chrys": 6064,
      "doktor": 6065,
      "##olo": 6066,
      "förutom": 6067,
      "##ringen": 6068,
      "Nova": 6069,
      "lövfäll": 6070,
      "sign": 6071,
      "Djur": 6072,
      "##ötland": 6073,
      "Lång": 6074,
      "##etaget": 6075,
      "##rument": 6076,
      "Gö": 6077,
      "##ee": 6078,
      "lövfällande": 6079,
      "##järna": 6080,
      "dokument": 6081,
      "flick": 6082,
      "bergsp": 6083,
      "##agus": 6084,
      "##larna": 6085,
      "##onym": 6086,
      "dig": 6087,
      "##songen": 6088,
      "fördel": 6089,
      "Gran": 6090,
      "##ordet": 6091,
      "##acken": 6092,
      "Melolont": 6093,
      "källa": 6094,
      "äkten": 6095,
      "lokala": 6096,
      "##ks": 6097,
      "##ycken": 6098,
      "##ester": 6099,
      "##förening": 6100,
      "##ete": 6101,
      "##iform": 6102,
      "Dub": 6103,
      "##eby": 6104,
      "marknad": 6105,
      "exemplar": 6106,
      "##ugu": 6107,
      "inkluder": 6108,
      "Jämt": 6109,
      "##reis": 6110,
      "##iae": 6111,
      "Ray": 6112,
      "Nar": 6113,
      "finska": 6114,
      "medel": 6115,
      "sår": 6116,
      "Tot": 6117,
      "rygg": 6118,
      "Fu": 6119,
      "##träff": 6120,
      "##ound": 6121,
      "##ief": 6122,
      "##yla": 6123,
      "motstånd": 6124,
      "##ucc": 6125,
      "##aner": 6126,
      "tron": 6127,
      "##ekan": 6128,
      "myrt": 6129,
      "Prag": 6130,
      "FC": 6131,
      "##but": 6132,
      "##manland": 6133,
      "behöv": 6134,
      "ten": 6135,
      "döm": 6136,
      "Bå": 6137,
      "utställ": 6138,
      "presenter": 6139,
      "ret": 6140,
      "valk": 6141,
      "invigdes": 6142,
      "manus": 6143,
      "neder": 6144,
      "Ev": 6145,
      "rub": 6146,
      "kandidat": 6147,
      "Gard": 6148,
      "Pap": 6149,
      "minsk": 6150,
      "häv": 6151,
      "Anth": 6152,
      "##ummer": 6153,
      "##etts": 6154,
      "Comp": 6155,
      "##imb": 6156,
      "##zar": 6157,
      "##ām": 6158,
      "Melolonthidae": 6159,
      "##ouk": 6160,
      "därpå": 6161,
      "Axel": 6162,
      "bör": 6163,
      "##antus": 6164,
      "Ach": 6165,
      "##far": 6166,
      "beröm": 6167,
      "##jektet": 6168,
      "##bolaget": 6169,
      "##läg": 6170,
      "##alc": 6171,
      "##lagt": 6172,
      "##yet": 6173,
      "Beirut": 6174,
      "##ike": 6175,
      "##andena": 6176,
      "##yer": 6177,
      "##ross": 6178,
      "fjärilar": 6179,
      "##optera": 6180,
      "forskning": 6181,
      "##ahr": 6182,
      "##platsen": 6183,
      "produktion": 6184,
      "Pers": 6185,
      "Prades": 6186,
      "återupp": 6187,
      "Ernst": 6188,
      "biskop": 6189,
      "flygplats": 6190,
      "Tenggara": 6191,
      "Cu": 6192,
      "grad": 6193,
      "skulpt": 6194,
      "svår": 6195,
      "##ato": 6196,
      "studio": 6197,
      "hav": 6198,
      "Albumet": 6199,
      "Vir": 6200,
      "##spekt": 6201,
      "mand": 6202,
      "##period": 6203,
      "##län": 6204,
      "symb": 6205,
      "Song": 6206,
      "##rona": 6207,
      "##obb": 6208,
      "prov": 6209,
      "historik": 6210,
      "##atem": 6211,
      "##aterna": 6212,
      "lans": 6213,
      "##ower": 6214,
      "##växt": 6215,
      "relativt": 6216,
      "##sky": 6217,
      "Arg": 6218,
      "##ellersta": 6219,
      "##anne": 6220,
      "Följande": 6221,
      "##eir": 6222,
      "nät": 6223,
      "##ansen": 6224,
      "##enta": 6225,
      "Käll": 6226,
      "##person": 6227,
      "Region": 6228,
      "##kv": 6229,
      "Kall": 6230,
      "Fort": 6231,
      "bytte": 6232,
      "bergspass": 6233,
      "Hermann": 6234,
      "Flyg": 6235,
      "innehåll": 6236,
      "##gick": 6237,
      "slaget": 6238,
      "brun": 6239,
      "##vand": 6240,
      "##undet": 6241,
      "nio": 6242,
      "##oca": 6243,
      "##unga": 6244,
      "Pradesh": 6245,
      "Im": 6246,
      "Sing": 6247,
      "enk": 6248,
      "national": 6249,
      "##elis": 6250,
      "skepp": 6251,
      "##stedt": 6252,
      "##ji": 6253,
      "##cy": 6254,
      "##ams": 6255,
      "naturres": 6256,
      "Över": 6257,
      "##partiet": 6258,
      "förvalt": 6259,
      "##ledare": 6260,
      "sal": 6261,
      "##etta": 6262,
      "italienska": 6263,
      "##elius": 6264,
      "##itionen": 6265,
      "städer": 6266,
      "Linn": 6267,
      "Super": 6268,
      "##splan": 6269,
      "yr": 6270,
      "Myc": 6271,
      "aust": 6272,
      "##olen": 6273,
      "##mot": 6274,
      "##azz": 6275,
      "##näs": 6276,
      "##elväxter": 6277,
      "##iment": 6278,
      "försökte": 6279,
      "programmet": 6280,
      "diameter": 6281,
      "lagen": 6282,
      "Hot": 6283,
      "##atser": 6284,
      "##ulatus": 6285,
      "nivå": 6286,
      "gäst": 6287,
      "byggnader": 6288,
      "uppmärksam": 6289,
      "##stone": 6290,
      "##ularis": 6291,
      "##öjtn": 6292,
      "Juan": 6293,
      "myrten": 6294,
      "##usive": 6295,
      "##ston": 6296,
      "posit": 6297,
      "World": 6298,
      "##lah": 6299,
      "##linjen": 6300,
      "fabrik": 6301,
      "ämbet": 6302,
      "##elb": 6303,
      "Bot": 6304,
      "EM": 6305,
      "##omus": 6306,
      "gren": 6307,
      "skrevs": 6308,
      "skild": 6309,
      "Depart": 6310,
      "##isab": 6311,
      "Sec": 6312,
      "erhöll": 6313,
      "vunnit": 6314,
      "Morro": 6315,
      "Records": 6316,
      "Bud": 6317,
      "Skåne": 6318,
      "##unde": 6319,
      "##omycetes": 6320,
      "Cour": 6321,
      "##ares": 6322,
      "Butt": 6323,
      "Stra": 6324,
      "Skop": 6325,
      "Låten": 6326,
      "pal": 6327,
      "Två": 6328,
      "Savolax": 6329,
      "bad": 6330,
      "##lic": 6331,
      "test": 6332,
      "Sin": 6333,
      "Björn": 6334,
      "ätt": 6335,
      "revolut": 6336,
      "Nusa": 6337,
      "höger": 6338,
      "resultat": 6339,
      "##förhåll": 6340,
      "Tjeckien": 6341,
      "Eftersom": 6342,
      "folkräk": 6343,
      "tävlade": 6344,
      "##rien": 6345,
      "fjäder": 6346,
      "Geografi": 6347,
      "##gäng": 6348,
      "##yle": 6349,
      "##atter": 6350,
      "##iji": 6351,
      "rid": 6352,
      "Miss": 6353,
      "uttryck": 6354,
      "##dal": 6355,
      "emellertid": 6356,
      "Dend": 6357,
      "alternat": 6358,
      "##ui": 6359,
      "##jänst": 6360,
      "Sī": 6361,
      "ansåg": 6362,
      "flyttades": 6363,
      "Cr": 6364,
      "##anga": 6365,
      "Första": 6366,
      "hustru": 6367,
      "Bart": 6368,
      "ersattes": 6369,
      "risk": 6370,
      "##éer": 6371,
      "kines": 6372,
      "utgav": 6373,
      "##löst": 6374,
      "leder": 6375,
      "halvgrä": 6376,
      "Cruz": 6377,
      "allmänna": 6378,
      "äl": 6379,
      "##eden": 6380,
      "Åren": 6381,
      "administrat": 6382,
      "##ulära": 6383,
      "tävlingen": 6384,
      "Cham": 6385,
      "##real": 6386,
      "##inerna": 6387,
      "##otes": 6388,
      "##ägen": 6389,
      "nattsländeart": 6390,
      "##inder": 6391,
      "Skottland": 6392,
      "dator": 6393,
      "historiska": 6394,
      "las": 6395,
      "Belg": 6396,
      "NHL": 6397,
      "##itch": 6398,
      "##ison": 6399,
      "Adel": 6400,
      "King": 6401,
      "##eslut": 6402,
      "uppgift": 6403,
      "Sem": 6404,
      "los": 6405,
      "##igan": 6406,
      "ensam": 6407,
      "##läggning": 6408,
      "##skriften": 6409,
      "Skopje": 6410,
      "tryck": 6411,
      "Kast": 6412,
      "kommit": 6413,
      "lån": 6414,
      "##ege": 6415,
      "Rudolf": 6416,
      "museum": 6417,
      "##omer": 6418,
      "##bolag": 6419,
      "skalbaggar": 6420,
      "##imus": 6421,
      "säsonger": 6422,
      "Nav": 6423,
      "fält": 6424,
      "anal": 6425,
      "Idag": 6426,
      "##aba": 6427,
      "##iderna": 6428,
      "##igg": 6429,
      "exper": 6430,
      "##lim": 6431,
      "peng": 6432,
      "##still": 6433,
      "Östra": 6434,
      "##ariket": 6435,
      "##iteter": 6436,
      "Boh": 6437,
      "##ugo": 6438,
      "##jä": 6439,
      "##ängden": 6440,
      "##enden": 6441,
      "##uri": 6442,
      "dagens": 6443,
      "myror": 6444,
      "##åldern": 6445,
      "##atik": 6446,
      "ev": 6447,
      "##fält": 6448,
      "##lov": 6449,
      "sän": 6450,
      "##ein": 6451,
      "Pil": 6452,
      "##ägare": 6453,
      "vägen": 6454,
      "Dia": 6455,
      "Sock": 6456,
      "##sex": 6457,
      "##enburg": 6458,
      "##åtar": 6459,
      "värde": 6460,
      "Nederländerna": 6461,
      "Samma": 6462,
      "##agnar": 6463,
      "inklusive": 6464,
      "##urs": 6465,
      "##ido": 6466,
      "##bas": 6467,
      "ytt": 6468,
      "dennes": 6469,
      "lägre": 6470,
      "moderna": 6471,
      "spindeldjursart": 6472,
      "##ati": 6473,
      "kejs": 6474,
      "bebygg": 6475,
      "Teg": 6476,
      "Koudyet": 6477,
      "Brach": 6478,
      "spelet": 6479,
      "Sri": 6480,
      "trupper": 6481,
      "Ör": 6482,
      "##āt": 6483,
      "##flytt": 6484,
      "dryg": 6485,
      "vanliga": 6486,
      "Bour": 6487,
      "projekt": 6488,
      "senaste": 6489,
      "gräsart": 6490,
      "Oper": 6491,
      "##eteck": 6492,
      "##rael": 6493,
      "Western": 6494,
      "kvalster": 6495,
      "Ly": 6496,
      "##ute": 6497,
      "##akh": 6498,
      "Cach": 6499,
      "##ès": 6500,
      "fel": 6501,
      "högt": 6502,
      "##ruktur": 6503,
      "##yana": 6504,
      "lager": 6505,
      "Bang": 6506,
      "såldes": 6507,
      "##oppor": 6508,
      "miljö": 6509,
      "öar": 6510,
      "##fiskar": 6511,
      "malv": 6512,
      "##jon": 6513,
      "##skont": 6514,
      "##ften": 6515,
      "##ña": 6516,
      "vänster": 6517,
      "##ångare": 6518,
      "Johansson": 6519,
      "op": 6520,
      "##kap": 6521,
      "glas": 6522,
      "introduc": 6523,
      "Tour": 6524,
      "##pper": 6525,
      "mult": 6526,
      "##no": 6527,
      "mod": 6528,
      "svenskt": 6529,
      "init": 6530,
      "fus": 6531,
      "ägg": 6532,
      "##lanssteklar": 6533,
      "##sminister": 6534,
      "##ligheter": 6535,
      "##otta": 6536,
      "##näm": 6537,
      "skrift": 6538,
      "##ogrammet": 6539,
      "Ath": 6540,
      "##īd": 6541,
      "framträd": 6542,
      "Amph": 6543,
      "sändes": 6544,
      "##elväxtart": 6545,
      "##eman": 6546,
      "##tjärnen": 6547,
      "##jöd": 6548,
      "##olas": 6549,
      "##idens": 6550,
      "Mill": 6551,
      "Sud": 6552,
      "Bulu": 6553,
      "Lam": 6554,
      "##edes": 6555,
      "märks": 6556,
      "tand": 6557,
      "Rog": 6558,
      "spanska": 6559,
      "Oscar": 6560,
      "Big": 6561,
      "följer": 6562,
      "##rang": 6563,
      "##acc": 6564,
      "ban": 6565,
      "Emil": 6566,
      "Hamp": 6567,
      "ansågs": 6568,
      "Vas": 6569,
      "##agt": 6570,
      "##opa": 6571,
      "##ungen": 6572,
      "fäst": 6573,
      "##imm": 6574,
      "svårt": 6575,
      "##verka": 6576,
      "##lam": 6577,
      "##yth": 6578,
      "##sjtina": 6579,
      "arbeta": 6580,
      "lokal": 6581,
      "Cur": 6582,
      "information": 6583,
      "tagit": 6584,
      "käns": 6585,
      "stab": 6586,
      "##sterna": 6587,
      "##rast": 6588,
      "##ierra": 6589,
      "observ": 6590,
      "Flera": 6591,
      "##öjd": 6592,
      "Kalmar": 6593,
      "##ärare": 6594,
      "##adern": 6595,
      "##ega": 6596,
      "##ābād": 6597,
      "##lab": 6598,
      "undersök": 6599,
      "##okus": 6600,
      "Sulaw": 6601,
      "##yang": 6602,
      "kontakt": 6603,
      "säkerhet": 6604,
      "akantus": 6605,
      "livet": 6606,
      "Kongo": 6607,
      "Hop": 6608,
      "organisation": 6609,
      "##öra": 6610,
      "Domingo": 6611,
      "##amiljen": 6612,
      "##log": 6613,
      "##dagen": 6614,
      "##ibland": 6615,
      "##ée": 6616,
      "skola": 6617,
      "##innan": 6618,
      "försvars": 6619,
      "europeiska": 6620,
      "##raff": 6621,
      "inledde": 6622,
      "##egy": 6623,
      "##marna": 6624,
      "befinner": 6625,
      "##oi": 6626,
      "omgivningen": 6627,
      "Manit": 6628,
      "##löt": 6629,
      "Skär": 6630,
      "Tas": 6631,
      "Ori": 6632,
      "påträff": 6633,
      "Ria": 6634,
      "##ellen": 6635,
      "baserad": 6636,
      "sådan": 6637,
      "##aff": 6638,
      "troll": 6639,
      "floden": 6640,
      "hertig": 6641,
      "##öter": 6642,
      "tidiga": 6643,
      "Ferdin": 6644,
      "Sulawesi": 6645,
      "förbätt": 6646,
      "Palm": 6647,
      "##fil": 6648,
      "inrikt": 6649,
      "vist": 6650,
      "bäst": 6651,
      "##san": 6652,
      "Rey": 6653,
      "våren": 6654,
      "##amento": 6655,
      "hålla": 6656,
      "Fel": 6657,
      "##itel": 6658,
      "It": 6659,
      "vice": 6660,
      "##öjtnant": 6661,
      "station": 6662,
      "##odon": 6663,
      "perioden": 6664,
      "Bil": 6665,
      "uppfatt": 6666,
      "##kon": 6667,
      "svar": 6668,
      "##phaer": 6669,
      "porträtt": 6670,
      "##ém": 6671,
      "latin": 6672,
      "##ampa": 6673,
      "tjänstgjorde": 6674,
      "avlade": 6675,
      "sovjet": 6676,
      "Hö": 6677,
      "öarna": 6678,
      "##ressen": 6679,
      "East": 6680,
      "##uer": 6681,
      "Laur": 6682,
      "##mond": 6683,
      "##risk": 6684,
      "##smål": 6685,
      "Jag": 6686,
      "##ocera": 6687,
      "##mera": 6688,
      "bestående": 6689,
      "parish": 6690,
      "##sningar": 6691,
      "undant": 6692,
      "Corn": 6693,
      "unga": 6694,
      "##rans": 6695,
      "prim": 6696,
      "matemat": 6697,
      "befolkningen": 6698,
      "##list": 6699,
      "##lest": 6700,
      "##uga": 6701,
      "Och": 6702,
      "Nilsson": 6703,
      "EU": 6704,
      "division": 6705,
      "##bebygg": 6706,
      "##opt": 6707,
      "sist": 6708,
      "bev": 6709,
      "vide": 6710,
      "##ente": 6711,
      "Sydkorea": 6712,
      "##ipennis": 6713,
      "##grupp": 6714,
      "seri": 6715,
      "##rata": 6716,
      "Orten": 6717,
      "Fiji": 6718,
      "Fåg": 6719,
      "com": 6720,
      "##istr": 6721,
      "bong": 6722,
      "levde": 6723,
      "##otrich": 6724,
      "Elisab": 6725,
      "dam": 6726,
      "ph": 6727,
      "viktigaste": 6728,
      "##öda": 6729,
      "Redan": 6730,
      "betydande": 6731,
      "antingen": 6732,
      "Pah": 6733,
      "##ört": 6734,
      "SS": 6735,
      "översätt": 6736,
      "##antha": 6737,
      "Guatem": 6738,
      "Victoria": 6739,
      "Darah": 6740,
      "Ferdinand": 6741,
      "Dor": 6742,
      "byggnaden": 6743,
      "Lunds": 6744,
      "##hund": 6745,
      "##ips": 6746,
      "nöd": 6747,
      "Pop": 6748,
      "släppte": 6749,
      "##sholm": 6750,
      "##lyck": 6751,
      "##eli": 6752,
      "mött": 6753,
      "vetenskapliga": 6754,
      "Helsingborg": 6755,
      "underarten": 6756,
      "Francisco": 6757,
      "Tal": 6758,
      "Carol": 6759,
      "tillkom": 6760,
      "##skl": 6761,
      "slutligen": 6762,
      "våld": 6763,
      "##verksamhet": 6764,
      "ruf": 6765,
      "Linné": 6766,
      "##apa": 6767,
      "bergsked": 6768,
      "förh": 6769,
      "utvecklades": 6770,
      "ting": 6771,
      "##astighet": 6772,
      "målare": 6773,
      "Pert": 6774,
      "##nia": 6775,
      "Ill": 6776,
      "religi": 6777,
      "##ynast": 6778,
      "Isla": 6779,
      "skapade": 6780,
      "tro": 6781,
      "verkade": 6782,
      "##vikt": 6783,
      "Eri": 6784,
      "SV": 6785,
      "##steg": 6786,
      "##bour": 6787,
      "marken": 6788,
      "##berget": 6789,
      "kam": 6790,
      "##otte": 6791,
      "Villa": 6792,
      "##yre": 6793,
      "##eff": 6794,
      "skriva": 6795,
      "ran": 6796,
      "sö": 6797,
      "inspir": 6798,
      "befäl": 6799,
      "Lanka": 6800,
      "##strand": 6801,
      "##författ": 6802,
      "Zagreb": 6803,
      "##efter": 6804,
      "##mid": 6805,
      "Filipp": 6806,
      "Guatemala": 6807,
      "Departamento": 6808,
      "##klubb": 6809,
      "Kron": 6810,
      "däribland": 6811,
      "##askar": 6812,
      "##cuador": 6813,
      "##izi": 6814,
      "professionell": 6815,
      "Alp": 6816,
      "ide": 6817,
      "ställde": 6818,
      "Son": 6819,
      "Sofia": 6820,
      "ögon": 6821,
      "Kyrkan": 6822,
      "##sor": 6823,
      "Simon": 6824,
      "##rädde": 6825,
      "##irt": 6826,
      "Angeles": 6827,
      "##sborg": 6828,
      "färdig": 6829,
      "guvernör": 6830,
      "huvudstad": 6831,
      "förut": 6832,
      "##listan": 6833,
      "Maz": 6834,
      "##ose": 6835,
      "köpte": 6836,
      "Moder": 6837,
      "Ström": 6838,
      "Franz": 6839,
      "##spelet": 6840,
      "##nik": 6841,
      "japanska": 6842,
      "##mäkt": 6843,
      "parasitflugor": 6844,
      "avse": 6845,
      "##bord": 6846,
      "fur": 6847,
      "##ygd": 6848,
      "Fär": 6849,
      "bygger": 6850,
      "##arus": 6851,
      "ordet": 6852,
      "motsvarar": 6853,
      "##kast": 6854,
      "Tekn": 6855,
      "småharkrankar": 6856,
      "eld": 6857,
      "Ama": 6858,
      "##oker": 6859,
      "##stift": 6860,
      "Johns": 6861,
      "misst": 6862,
      "Manitoba": 6863,
      "##änts": 6864,
      "##hr": 6865,
      "delarna": 6866,
      "##röst": 6867,
      "värd": 6868,
      "Ts": 6869,
      "Just": 6870,
      "##odd": 6871,
      "##dera": 6872,
      "Mi": 6873,
      "ersätt": 6874,
      "Chil": 6875,
      "stri": 6876,
      "##äbb": 6877,
      "##älven": 6878,
      "bank": 6879,
      "sport": 6880,
      "föreställ": 6881,
      "##ps": 6882,
      "frukt": 6883,
      "##well": 6884,
      "pul": 6885,
      "skiljer": 6886,
      "veckor": 6887,
      "ensk": 6888,
      "Ju": 6889,
      "steg": 6890,
      "##åga": 6891,
      "Järn": 6892,
      "##löp": 6893,
      "##delning": 6894,
      "täckt": 6895,
      "##atformen": 6896,
      "förlag": 6897,
      "Gott": 6898,
      "Myr": 6899,
      "##āz": 6900,
      "##eval": 6901,
      "tropiskt": 6902,
      "##aya": 6903,
      "How": 6904,
      "Lit": 6905,
      "Ban": 6906,
      "myrart": 6907,
      "kontroll": 6908,
      "Exempel": 6909,
      "filosofie": 6910,
      "Mey": 6911,
      "##alo": 6912,
      "lämna": 6913,
      "##apé": 6914,
      "##ár": 6915,
      "##obius": 6916,
      "##ós": 6917,
      "Mün": 6918,
      "Elf": 6919,
      "kem": 6920,
      "##uro": 6921,
      "Nov": 6922,
      "igenom": 6923,
      "##ongol": 6924,
      "##enberg": 6925,
      "intresse": 6926,
      "beskrivs": 6927,
      "Förutom": 6928,
      "väld": 6929,
      "minuter": 6930,
      "Hag": 6931,
      "pall": 6932,
      "naturreservat": 6933,
      "##edag": 6934,
      "Dem": 6935,
      "##forsk": 6936,
      "Hockey": 6937,
      "##atta": 6938,
      "##kraft": 6939,
      "mörd": 6940,
      "komposit": 6941,
      "##eles": 6942,
      "##ativa": 6943,
      "drygt": 6944,
      "Sum": 6945,
      "##jus": 6946,
      "nominatformen": 6947,
      "Mary": 6948,
      "kolon": 6949,
      "Scotia": 6950,
      "bibliotek": 6951,
      "##svenskan": 6952,
      "Fo": 6953,
      "##ördes": 6954,
      "perman": 6955,
      "frågor": 6956,
      "##sköld": 6957,
      "valkrets": 6958,
      "Mosk": 6959,
      "Crypt": 6960,
      "Ti": 6961,
      "##igheterna": 6962,
      "ir": 6963,
      "ock": 6964,
      "##gor": 6965,
      "officiella": 6966,
      "##anskt": 6967,
      "anfall": 6968,
      "omfattade": 6969,
      "##ionens": 6970,
      "civil": 6971,
      "Sucre": 6972,
      "##ningsm": 6973,
      "Institut": 6974,
      "Pach": 6975,
      "##aeus": 6976,
      "##phus": 6977,
      "orten": 6978,
      "tvingades": 6979,
      "Dominikanska": 6980,
      "Tib": 6981,
      "Värld": 6982,
      "förslag": 6983,
      "##eds": 6984,
      "rot": 6985,
      "seder": 6986,
      "##ér": 6987,
      "Småland": 6988,
      "##elserna": 6989,
      "##dis": 6990,
      "##feld": 6991,
      "förhållande": 6992,
      "Vasa": 6993,
      "vind": 6994,
      "##ills": 6995,
      "##aus": 6996,
      "Sr": 6997,
      "standard": 6998,
      "##ridge": 6999,
      "norsk": 7000,
      "Mid": 7001,
      "##högskolan": 7002,
      "hette": 7003,
      "##aro": 7004,
      "Shu": 7005,
      "##jöl": 7006,
      "tack": 7007,
      "##cer": 7008,
      "##bor": 7009,
      "Suva": 7010,
      "##serien": 7011,
      "författaren": 7012,
      "Sovjetunionen": 7013,
      "enga": 7014,
      "mas": 7015,
      "tätt": 7016,
      "rob": 7017,
      "Cra": 7018,
      "upprätt": 7019,
      "Hum": 7020,
      "fylumet": 7021,
      "rea": 7022,
      "Mala": 7023,
      "engager": 7024,
      "handels": 7025,
      "##huvudort": 7026,
      "final": 7027,
      "Jön": 7028,
      "individer": 7029,
      "Lid": 7030,
      "Castle": 7031,
      "Gunnar": 7032,
      "ifrån": 7033,
      "Ecuador": 7034,
      "autonom": 7035,
      "##iljö": 7036,
      "##klass": 7037,
      "världsm": 7038,
      "kvinnliga": 7039,
      "riksdagen": 7040,
      "Qar": 7041,
      "dagen": 7042,
      "Ume": 7043,
      "kvalsterart": 7044,
      "trum": 7045,
      "Ash": 7046,
      "jakt": 7047,
      "##ík": 7048,
      "klipp": 7049,
      "##rach": 7050,
      "handel": 7051,
      "Mall": 7052,
      "figur": 7053,
      "##sin": 7054,
      "Dāgh": 7055,
      "##eti": 7056,
      "brand": 7057,
      "##ānī": 7058,
      "Ci": 7059,
      "##ännen": 7060,
      "utrikes": 7061,
      "##vetenskap": 7062,
      "##ynt": 7063,
      "Irland": 7064,
      "##uff": 7065,
      "uppkallad": 7066,
      "friidrott": 7067,
      "##chin": 7068,
      "öppna": 7069,
      "konfli": 7070,
      "##oto": 7071,
      "stav": 7072,
      "fru": 7073,
      "nej": 7074,
      "seger": 7075,
      "sångare": 7076,
      "hård": 7077,
      "framt": 7078,
      "##annol": 7079,
      "Jakob": 7080,
      "Pin": 7081,
      "##olin": 7082,
      "##teri": 7083,
      "##uellt": 7084,
      "höglandsklimat": 7085,
      "gymnas": 7086,
      "Dre": 7087,
      "Osl": 7088,
      "hal": 7089,
      "##mo": 7090,
      "AI": 7091,
      "Gym": 7092,
      "##rons": 7093,
      "Olymp": 7094,
      "##uber": 7095,
      "Ribeir": 7096,
      "##unnits": 7097,
      "Ester": 7098,
      "misslyck": 7099,
      "Vol": 7100,
      "prins": 7101,
      "##iven": 7102,
      "##ican": 7103,
      "##musik": 7104,
      "##nt": 7105,
      "kraftigt": 7106,
      "inget": 7107,
      "##ycl": 7108,
      "##schef": 7109,
      "svarta": 7110,
      "##vakt": 7111,
      "Stre": 7112,
      "ljung": 7113,
      "Fall": 7114,
      "Bri": 7115,
      "snäckart": 7116,
      "Nom": 7117,
      "havs": 7118,
      "byggde": 7119,
      "staten": 7120,
      "Utt": 7121,
      "Kra": 7122,
      "rollen": 7123,
      "präg": 7124,
      "Ribeirão": 7125,
      "föremål": 7126,
      "Brown": 7127,
      "straff": 7128,
      "Federationen": 7129,
      "Nue": 7130,
      "kallat": 7131,
      "##adel": 7132,
      "tätbebygg": 7133,
      "Gör": 7134,
      "##ifera": 7135,
      "mur": 7136,
      "Igar": 7137,
      "mak": 7138,
      "##yia": 7139,
      "##ståndet": 7140,
      "ökade": 7141,
      "webb": 7142,
      "##ums": 7143,
      "flockblommiga": 7144,
      "##ocha": 7145,
      "Chap": 7146,
      "##änneteck": 7147,
      "##vard": 7148,
      "Vissa": 7149,
      "##station": 7150,
      "Lang": 7151,
      "##neh": 7152,
      "Kuba": 7153,
      "Arthur": 7154,
      "huvudb": 7155,
      "##lande": 7156,
      "##färd": 7157,
      "grekiska": 7158,
      "Sym": 7159,
      "tom": 7160,
      "vårt": 7161,
      "##ellus": 7162,
      "verksamheten": 7163,
      "##aljer": 7164,
      "fokus": 7165,
      "egentligen": 7166,
      "##onus": 7167,
      "ång": 7168,
      "##gs": 7169,
      "##omma": 7170,
      "##eger": 7171,
      "##ruket": 7172,
      "kritik": 7173,
      "Tip": 7174,
      "Säsongen": 7175,
      "##ifer": 7176,
      "Hell": 7177,
      "musiker": 7178,
      "syfte": 7179,
      "##endom": 7180,
      "Samtidigt": 7181,
      "##ikation": 7182,
      "Karriär": 7183,
      "##ew": 7184,
      "månad": 7185,
      "extra": 7186,
      "drottning": 7187,
      "##iano": 7188,
      "##orden": 7189,
      "France": 7190,
      "##aliska": 7191,
      "##ail": 7192,
      "Nam": 7193,
      "mörk": 7194,
      "##ør": 7195,
      "##ävlingarna": 7196,
      "Wood": 7197,
      "##anta": 7198,
      "Win": 7199,
      "##mi": 7200,
      "konstrukt": 7201,
      "återfin": 7202,
      "Österg": 7203,
      "##sningen": 7204,
      "##ivière": 7205,
      "ena": 7206,
      "fotograf": 7207,
      "Verk": 7208,
      "Stan": 7209,
      "gu": 7210,
      "##spår": 7211,
      "##andin": 7212,
      "##gångar": 7213,
      "##ästerskapen": 7214,
      "##arin": 7215,
      "utmärk": 7216,
      "##omor": 7217,
      "kra": 7218,
      "stylt": 7219,
      "##ther": 7220,
      "populär": 7221,
      "avstånd": 7222,
      "Jacques": 7223,
      "##atak": 7224,
      "##ävlingen": 7225,
      "Ari": 7226,
      "vår": 7227,
      "utgjorde": 7228,
      "Somm": 7229,
      "##stre": 7230,
      "finländsk": 7231,
      "Igarapé": 7232,
      "inflytande": 7233,
      "resa": 7234,
      "roller": 7235,
      "typer": 7236,
      "Lilla": 7237,
      "gått": 7238,
      "Bent": 7239,
      "nationella": 7240,
      "Dhar": 7241,
      "politik": 7242,
      "##ieb": 7243,
      "Arch": 7244,
      "upphörde": 7245,
      "kärlek": 7246,
      "meddelade": 7247,
      "våt": 7248,
      "solen": 7249,
      "##icornis": 7250,
      "##samma": 7251,
      "direktör": 7252,
      "ström": 7253,
      "##ardo": 7254,
      "Gall": 7255,
      "##anthes": 7256,
      "Kaz": 7257,
      "##bär": 7258,
      "exist": 7259,
      "tätbebyggt": 7260,
      "tros": 7261,
      "kvarter": 7262,
      "ändå": 7263,
      "##maskar": 7264,
      "##ical": 7265,
      "pengar": 7266,
      "##jäll": 7267,
      "läkare": 7268,
      "parall": 7269,
      "Zh": 7270,
      "Finlands": 7271,
      "##atoriet": 7272,
      "Antonio": 7273,
      "back": 7274,
      "##onsin": 7275,
      "##kin": 7276,
      "##räff": 7277,
      "Afrika": 7278,
      "You": 7279,
      "##räft": 7280,
      "öppen": 7281,
      "Lec": 7282,
      "Costa": 7283,
      "otill": 7284,
      "##ierade": 7285,
      "amar": 7286,
      "kvinna": 7287,
      "Gäv": 7288,
      "##ländor": 7289,
      "fack": 7290,
      "##ase": 7291,
      "Salt": 7292,
      "##eba": 7293,
      "##stiden": 7294,
      "Egent": 7295,
      "bildar": 7296,
      "sådana": 7297,
      "Cir": 7298,
      "Tol": 7299,
      "##ollar": 7300,
      "Wash": 7301,
      "##cep": 7302,
      "##oki": 7303,
      "##skon": 7304,
      "lavart": 7305,
      "Chang": 7306,
      "grod": 7307,
      "jorden": 7308,
      "##iflora": 7309,
      "##esa": 7310,
      "mic": 7311,
      "reserv": 7312,
      "Turk": 7313,
      "bostad": 7314,
      "dubbel": 7315,
      "##opf": 7316,
      "Steph": 7317,
      "mänsk": 7318,
      "Euph": 7319,
      "kärn": 7320,
      "##ophagus": 7321,
      "##vok": 7322,
      "kar": 7323,
      "Jbel": 7324,
      "Green": 7325,
      "##ästaren": 7326,
      "Bod": 7327,
      "stann": 7328,
      "##ere": 7329,
      "tillstånd": 7330,
      "österrik": 7331,
      "##aine": 7332,
      "##īl": 7333,
      "##skol": 7334,
      "##vika": 7335,
      "Dis": 7336,
      "sat": 7337,
      "matchen": 7338,
      "##jor": 7339,
      "##förhållandena": 7340,
      "##häng": 7341,
      "använts": 7342,
      "##āj": 7343,
      "varierar": 7344,
      "##erien": 7345,
      "bry": 7346,
      "stäm": 7347,
      "Vit": 7348,
      "Arn": 7349,
      "##svall": 7350,
      "femte": 7351,
      "Gon": 7352,
      "sank": 7353,
      "##läggningen": 7354,
      "Franç": 7355,
      "varför": 7356,
      "heder": 7357,
      "super": 7358,
      "sålde": 7359,
      "##con": 7360,
      "But": 7361,
      "spar": 7362,
      "##useet": 7363,
      "arbetet": 7364,
      "sedermera": 7365,
      "##jav": 7366,
      "##ctus": 7367,
      "framställ": 7368,
      "individ": 7369,
      "##ient": 7370,
      "gården": 7371,
      "Lik": 7372,
      "Rivière": 7373,
      "##eton": 7374,
      "##eiro": 7375,
      "Kairo": 7376,
      "spelas": 7377,
      "Rub": 7378,
      "skapades": 7379,
      "Mats": 7380,
      "Eti": 7381,
      "Fab": 7382,
      "disp": 7383,
      "##orium": 7384,
      "Nun": 7385,
      "##egori": 7386,
      "ända": 7387,
      "Dr": 7388,
      "##orget": 7389,
      "##mon": 7390,
      "##bäcken": 7391,
      "förening": 7392,
      "##ellet": 7393,
      "examen": 7394,
      "jurid": 7395,
      "bal": 7396,
      "sträv": 7397,
      "Nap": 7398,
      "##amma": 7399,
      "##cell": 7400,
      "##rimin": 7401,
      "##skrifter": 7402,
      "Asteroid": 7403,
      "##arbetare": 7404,
      "ordin": 7405,
      "ori": 7406,
      "Ark": 7407,
      "##allt": 7408,
      "övergick": 7409,
      "sköld": 7410,
      "##shoppor": 7411,
      "lista": 7412,
      "Ång": 7413,
      "##nam": 7414,
      "officiellt": 7415,
      "##iku": 7416,
      "nordöst": 7417,
      "jätt": 7418,
      "SVT": 7419,
      "krav": 7420,
      "grön": 7421,
      "landslag": 7422,
      "kanske": 7423,
      "##elin": 7424,
      "uttal": 7425,
      "dipl": 7426,
      "##sport": 7427,
      "militära": 7428,
      "universitetet": 7429,
      "Ent": 7430,
      "##lätt": 7431,
      "jul": 7432,
      "astronomen": 7433,
      "Bob": 7434,
      "Ball": 7435,
      "Dalarna": 7436,
      "Etiop": 7437,
      "##rium": 7438,
      "##satta": 7439,
      "menar": 7440,
      "##ulla": 7441,
      "##öner": 7442,
      "##ray": 7443,
      "Hay": 7444,
      "medborg": 7445,
      "undantag": 7446,
      "bergskedja": 7447,
      "##ryckt": 7448,
      "##ís": 7449,
      "Kun": 7450,
      "kanadens": 7451,
      "##agua": 7452,
      "##sburg": 7453,
      "Mass": 7454,
      "denne": 7455,
      "säger": 7456,
      "##stor": 7457,
      "##mak": 7458,
      "##stjärn": 7459,
      "process": 7460,
      "Rut": 7461,
      "##andinav": 7462,
      "Prod": 7463,
      "##ossor": 7464,
      "publicerades": 7465,
      "återfinns": 7466,
      "Så": 7467,
      "Gävle": 7468,
      "Oslo": 7469,
      "Acanth": 7470,
      "##kyrka": 7471,
      "arida": 7472,
      "app": 7473,
      "##örande": 7474,
      "##insk": 7475,
      "##nag": 7476,
      "##dad": 7477,
      "Tok": 7478,
      "hemma": 7479,
      "Damask": 7480,
      "Umeå": 7481,
      "##ianus": 7482,
      "förekom": 7483,
      "##givare": 7484,
      "Khor": 7485,
      "väldigt": 7486,
      "viktiga": 7487,
      "semif": 7488,
      "bord": 7489,
      "Ljung": 7490,
      "Darreh": 7491,
      "Ale": 7492,
      "ges": 7493,
      "rymd": 7494,
      "Damaskus": 7495,
      "förbind": 7496,
      "tra": 7497,
      "vinna": 7498,
      "illust": 7499,
      "mandat": 7500,
      "Ja": 7501,
      "##arens": 7502,
      "##iers": 7503,
      "Madag": 7504,
      "Älv": 7505,
      "noter": 7506,
      "##és": 7507,
      "representerad": 7508,
      "##ün": 7509,
      "##assad": 7510,
      "näss": 7511,
      "Perth": 7512,
      "dit": 7513,
      "Egentliga": 7514,
      "##iftet": 7515,
      "registr": 7516,
      "##ilja": 7517,
      "Spring": 7518,
      "IV": 7519,
      "doms": 7520,
      "##ehr": 7521,
      "Kastilien": 7522,
      "##lös": 7523,
      "publicerade": 7524,
      "##färg": 7525,
      "Award": 7526,
      "verkar": 7527,
      "##värd": 7528,
      "##umen": 7529,
      "##röna": 7530,
      "Britt": 7531,
      "##skaff": 7532,
      "##konst": 7533,
      "##ogel": 7534,
      "allvar": 7535,
      "##ophilus": 7536,
      "##arius": 7537,
      "##apnet": 7538,
      "kött": 7539,
      "dyk": 7540,
      "Hart": 7541,
      "aukt": 7542,
      "Wind": 7543,
      "representerade": 7544,
      "fyr": 7545,
      "utspel": 7546,
      "Vrh": 7547,
      "##xi": 7548,
      "tor": 7549,
      "##omet": 7550,
      "ledande": 7551,
      "##brun": 7552,
      "##handling": 7553,
      "##rande": 7554,
      "skatt": 7555,
      "High": 7556,
      "fängelse": 7557,
      "##läkt": 7558,
      "Chic": 7559,
      "##lista": 7560,
      "saknar": 7561,
      "Bezirk": 7562,
      "översättning": 7563,
      "André": 7564,
      "##olus": 7565,
      "Josef": 7566,
      "Bank": 7567,
      "##vinsen": 7568,
      "Mitt": 7569,
      "sum": 7570,
      "##attsländor": 7571,
      "##orps": 7572,
      "##iza": 7573,
      "kontin": 7574,
      "Sierra": 7575,
      "##āw": 7576,
      "##hamn": 7577,
      "os": 7578,
      "##ologisk": 7579,
      "Melan": 7580,
      "##pas": 7581,
      "##räds": 7582,
      "##byggnaden": 7583,
      "förläng": 7584,
      "Hipp": 7585,
      "klart": 7586,
      "Psych": 7587,
      "rapporter": 7588,
      "##apt": 7589,
      "##alpa": 7590,
      "Form": 7591,
      "härst": 7592,
      "deltagare": 7593,
      "ed": 7594,
      "##eka": 7595,
      "Mali": 7596,
      "Warren": 7597,
      "Lee": 7598,
      "##zhou": 7599,
      "fir": 7600,
      "##isterna": 7601,
      "##āsh": 7602,
      "##zer": 7603,
      "Kim": 7604,
      "bur": 7605,
      "##rif": 7606,
      "dramat": 7607,
      "neg": 7608,
      "##ustrin": 7609,
      "sankmarker": 7610,
      "frit": 7611,
      "mästare": 7612,
      "Klimatförhållandena": 7613,
      "##församling": 7614,
      "Mach": 7615,
      "högst": 7616,
      "jämför": 7617,
      "##nest": 7618,
      "##eau": 7619,
      "Āb": 7620,
      "resul": 7621,
      "Asteroiden": 7622,
      "folkm": 7623,
      "domstol": 7624,
      "##laget": 7625,
      "##aret": 7626,
      "talen": 7627,
      "tolv": 7628,
      "kompon": 7629,
      "Ela": 7630,
      "##porter": 7631,
      "##skrona": 7632,
      "urval": 7633,
      "skrifter": 7634,
      "sånger": 7635,
      "##liggande": 7636,
      "bevis": 7637,
      "Roth": 7638,
      "##åra": 7639,
      "##inet": 7640,
      "knapp": 7641,
      "storlek": 7642,
      "##ollis": 7643,
      "kräv": 7644,
      "Etiopien": 7645,
      "Kv": 7646,
      "kristna": 7647,
      "##avica": 7648,
      "##dam": 7649,
      "genomfördes": 7650,
      "utkom": 7651,
      "Fe": 7652,
      "##ogae": 7653,
      "kult": 7654,
      "Zeeland": 7655,
      "förlust": 7656,
      "ägare": 7657,
      "radio": 7658,
      "Förs": 7659,
      "inre": 7660,
      "stycken": 7661,
      "Color": 7662,
      "##öde": 7663,
      "##ijan": 7664,
      "italiensk": 7665,
      "Status": 7666,
      "##ättning": 7667,
      "##entian": 7668,
      "hjul": 7669,
      "##stil": 7670,
      "##board": 7671,
      "huvudbältet": 7672,
      "visa": 7673,
      "##organ": 7674,
      "äktenskap": 7675,
      "flockblommig": 7676,
      "CD": 7677,
      "##kov": 7678,
      "##stud": 7679,
      "##oher": 7680,
      "Väx": 7681,
      "Wolf": 7682,
      "torn": 7683,
      "initiat": 7684,
      "kul": 7685,
      "skyd": 7686,
      "skid": 7687,
      "Arbet": 7688,
      "håller": 7689,
      "liber": 7690,
      "##hea": 7691,
      "##har": 7692,
      "but": 7693,
      "nam": 7694,
      "Bö": 7695,
      "Jämtland": 7696,
      "##ites": 7697,
      "##ét": 7698,
      "upphov": 7699,
      "Law": 7700,
      "##sby": 7701,
      "funnits": 7702,
      "Cerat": 7703,
      "##arth": 7704,
      "##sidan": 7705,
      "Chlor": 7706,
      "publik": 7707,
      "##orier": 7708,
      "ingenjör": 7709,
      "Ivan": 7710,
      "kamm": 7711,
      "bakgrund": 7712,
      "Agu": 7713,
      "däremot": 7714,
      "Cacho": 7715,
      "sociala": 7716,
      "Gir": 7717,
      "regl": 7718,
      "Atl": 7719,
      "Rum": 7720,
      "##istrikt": 7721,
      "##ural": 7722,
      "Dock": 7723,
      "Gabri": 7724,
      "François": 7725,
      "##erenser": 7726,
      "permanent": 7727,
      "##agan": 7728,
      "nästa": 7729,
      "Hammar": 7730,
      "##namnet": 7731,
      "##ogloss": 7732,
      "##dd": 7733,
      "##itud": 7734,
      "kullar": 7735,
      "##emann": 7736,
      "log": 7737,
      "möt": 7738,
      "##agne": 7739,
      "##icer": 7740,
      "##trem": 7741,
      "språket": 7742,
      "##esia": 7743,
      "##mast": 7744,
      "anställda": 7745,
      "arbetat": 7746,
      "##inosa": 7747,
      "##uning": 7748,
      "Strand": 7749,
      "##rey": 7750,
      "Oued": 7751,
      "##rina": 7752,
      "Madagaskar": 7753,
      "Pres": 7754,
      "##blommiga": 7755,
      "##regionen": 7756,
      "uppgifter": 7757,
      "##erto": 7758,
      "dist": 7759,
      "##run": 7760,
      "Buttu": 7761,
      "##otyp": 7762,
      "##ungf": 7763,
      "##beck": 7764,
      "##ekreterare": 7765,
      "Beck": 7766,
      "##fa": 7767,
      "Europeiska": 7768,
      "##holms": 7769,
      "bud": 7770,
      "utök": 7771,
      "förbund": 7772,
      "Hj": 7773,
      "##oga": 7774,
      "##förda": 7775,
      "##sey": 7776,
      "Xanth": 7777,
      "run": 7778,
      "vanligtvis": 7779,
      "Radio": 7780,
      "Sz": 7781,
      "upplagan": 7782,
      "hy": 7783,
      "Tapp": 7784,
      "##enz": 7785,
      "behov": 7786,
      "japansk": 7787,
      "Bran": 7788,
      "nämnd": 7789,
      "##ogaster": 7790,
      "##ebin": 7791,
      "Indian": 7792,
      "##ublika": 7793,
      "serier": 7794,
      "dör": 7795,
      "##ous": 7796,
      "##oua": 7797,
      "forskare": 7798,
      "Serg": 7799,
      "förd": 7800,
      "pans": 7801,
      "socialdemokrat": 7802,
      "utgavs": 7803,
      "överlev": 7804,
      "##räkt": 7805,
      "lic": 7806,
      "Västerb": 7807,
      "Ara": 7808,
      "kommunerna": 7809,
      "##isen": 7810,
      "precis": 7811,
      "Utseende": 7812,
      "##aspis": 7813,
      "Augu": 7814,
      "##erier": 7815,
      "Kategori": 7816,
      "fyll": 7817,
      "##ues": 7818,
      "##fåglar": 7819,
      "Washington": 7820,
      "Östantarktis": 7821,
      "Ron": 7822,
      "##gående": 7823,
      "##pan": 7824,
      "Stä": 7825,
      "församlingen": 7826,
      "Företaget": 7827,
      "Dur": 7828,
      "Moskva": 7829,
      "Aqu": 7830,
      "McC": 7831,
      "##nytt": 7832,
      "Amerik": 7833,
      "uppmärksamm": 7834,
      "##agande": 7835,
      "kal": 7836,
      "##olt": 7837,
      "resten": 7838,
      "##ender": 7839,
      "infördes": 7840,
      "Horn": 7841,
      "Ross": 7842,
      "Emb": 7843,
      "Sask": 7844,
      "##etus": 7845,
      "skjut": 7846,
      "föräldrar": 7847,
      "Dev": 7848,
      "eng": 7849,
      "Che": 7850,
      "kong": 7851,
      "##kester": 7852,
      "enhet": 7853,
      "##odi": 7854,
      "förvär": 7855,
      "Rapids": 7856,
      "Cachoeira": 7857,
      "##rel": 7858,
      "Social": 7859,
      "försälj": 7860,
      "##idus": 7861,
      "former": 7862,
      "utöv": 7863,
      "##osten": 7864,
      "politisk": 7865,
      "befolkning": 7866,
      "assist": 7867,
      "tekniska": 7868,
      "båt": 7869,
      "Julius": 7870,
      "kompl": 7871,
      "speciellt": 7872,
      "Tay": 7873,
      "arab": 7874,
      "##edra": 7875,
      "Samuel": 7876,
      "Häls": 7877,
      "utförde": 7878,
      "symbol": 7879,
      "##oo": 7880,
      "stadsdelen": 7881,
      "##aljör": 7882,
      "##icta": 7883,
      "##kreis": 7884,
      "värv": 7885,
      "Västerås": 7886,
      "Top": 7887,
      "##baijan": 7888,
      "##NA": 7889,
      "##ottens": 7890,
      "kyrkog": 7891,
      "##skydd": 7892,
      "##etten": 7893,
      "Act": 7894,
      "##laren": 7895,
      "System": 7896,
      "dial": 7897,
      "Bakgrund": 7898,
      "##emin": 7899,
      "kapten": 7900,
      "Abb": 7901,
      "Syn": 7902,
      "Alber": 7903,
      "försöker": 7904,
      "##aco": 7905,
      "##ear": 7906,
      "IK": 7907,
      "##mes": 7908,
      "Thor": 7909,
      "Kungariket": 7910,
      "Pyr": 7911,
      "##banan": 7912,
      "Jesus": 7913,
      "##ges": 7914,
      "Pek": 7915,
      "kart": 7916,
      "##ledning": 7917,
      "##ës": 7918,
      "poj": 7919,
      "##ungebin": 7920,
      "tillgäng": 7921,
      "situ": 7922,
      "##ipend": 7923,
      "ställning": 7924,
      "##ografiska": 7925,
      "Khorasan": 7926,
      "##po": 7927,
      "utform": 7928,
      "cyk": 7929,
      "##skepp": 7930,
      "Mig": 7931,
      "Piz": 7932,
      "Tub": 7933,
      "##agh": 7934,
      "inleddes": 7935,
      "Deras": 7936,
      "populära": 7937,
      "##omia": 7938,
      "##malm": 7939,
      "Politis": 7940,
      "##aket": 7941,
      "Bost": 7942,
      "##fartyg": 7943,
      "Range": 7944,
      "bröder": 7945,
      "Ludvig": 7946,
      "Pont": 7947,
      "autonoma": 7948,
      "##ando": 7949,
      "arbets": 7950,
      "Yang": 7951,
      "dram": 7952,
      "lands": 7953,
      "Estero": 7954,
      "Lew": 7955,
      "motsvarande": 7956,
      "Myn": 7957,
      "##rez": 7958,
      "Comm": 7959,
      "Österbotten": 7960,
      "möjlighet": 7961,
      "hegy": 7962,
      "München": 7963,
      "##essen": 7964,
      "##mäktige": 7965,
      "##slam": 7966,
      "##författare": 7967,
      "ordinarie": 7968,
      "Politischer": 7969,
      "Ain": 7970,
      "##otan": 7971,
      "##ebo": 7972,
      "närmare": 7973,
      "##bud": 7974,
      "Parc": 7975,
      "gitarr": 7976,
      "Phyt": 7977,
      "ag": 7978,
      "White": 7979,
      "##ogn": 7980,
      "Scott": 7981,
      "Vilhelm": 7982,
      "Sun": 7983,
      "Bure": 7984,
      "tillf": 7985,
      "intern": 7986,
      "Oli": 7987,
      "sannol": 7988,
      "vare": 7989,
      "våg": 7990,
      "##atche": 7991,
      "##oci": 7992,
      "##amat": 7993,
      "hamnade": 7994,
      "gär": 7995,
      "svampdjursart": 7996,
      "Lip": 7997,
      "##bach": 7998,
      "utrust": 7999,
      "##roch": 8000,
      "##īy": 8001,
      "Pahār": 8002,
      "##reformen": 8003,
      "reste": 8004,
      "beräk": 8005,
      "##ding": 8006,
      "Vatt": 8007,
      "tränare": 8008,
      "##arder": 8009,
      "fastställ": 8010,
      "##redik": 8011,
      "##jiang": 8012,
      "##riga": 8013,
      "hit": 8014,
      "mun": 8015,
      "##splats": 8016,
      "myt": 8017,
      "##obel": 8018,
      "sitter": 8019,
      "flod": 8020,
      "Um": 8021,
      "uppn": 8022,
      "##atchewan": 8023,
      "inslag": 8024,
      "Larsson": 8025,
      "öppnade": 8026,
      "behöver": 8027,
      "me": 8028,
      "##otis": 8029,
      "snar": 8030,
      "##anger": 8031,
      "Saskatchewan": 8032,
      "strandlinjen": 8033,
      "Tru": 8034,
      "slogs": 8035,
      "gods": 8036,
      "avslutade": 8037,
      "mol": 8038,
      "bolag": 8039,
      "##uten": 8040,
      "instrument": 8041,
      "##shavet": 8042,
      "vet": 8043,
      "##aven": 8044,
      "stäng": 8045,
      "##går": 8046,
      "Lad": 8047,
      "äng": 8048,
      "##rage": 8049,
      "##inata": 8050,
      "energi": 8051,
      "##bitare": 8052,
      "Mellersta": 8053,
      "##enk": 8054,
      "##itat": 8055,
      "##fabrik": 8056,
      "Tu": 8057,
      "Belgien": 8058,
      "betydligt": 8059,
      "Off": 8060,
      "befolkad": 8061,
      "Lenn": 8062,
      "Riacho": 8063,
      "gro": 8064,
      "##estival": 8065,
      "##arskap": 8066,
      "##inella": 8067,
      "##jev": 8068,
      "Serien": 8069,
      "priset": 8070,
      "temperatur": 8071,
      "##udi": 8072,
      "utvecklade": 8073,
      "häng": 8074,
      "##eende": 8075,
      "kontroller": 8076,
      "sårbar": 8077,
      "##hålla": 8078,
      "släkten": 8079,
      "##ocephalus": 8080,
      "##vens": 8081,
      "##endron": 8082,
      "Ther": 8083,
      "##ome": 8084,
      "innehöll": 8085,
      "konc": 8086,
      "##ūd": 8087,
      "Grad": 8088,
      "##gå": 8089,
      "##aktig": 8090,
      "Varje": 8091,
      "heller": 8092,
      "strä": 8093,
      "##lösa": 8094,
      "Harris": 8095,
      "offentliga": 8096,
      "Royal": 8097,
      "Hil": 8098,
      "##ologin": 8099,
      "##smannen": 8100,
      "Srp": 8101,
      "återigen": 8102,
      "##rätten": 8103,
      "##ics": 8104,
      "bilder": 8105,
      "##sket": 8106,
      "Vad": 8107,
      "##skottet": 8108,
      "Emp": 8109,
      "##yan": 8110,
      "Guinea": 8111,
      "betraktas": 8112,
      "Hit": 8113,
      "##edda": 8114,
      "singeln": 8115,
      "metall": 8116,
      "##öcker": 8117,
      "Alm": 8118,
      "##outi": 8119,
      "College": 8120,
      "##ktes": 8121,
      "dollar": 8122,
      "##likt": 8123,
      "Piper": 8124,
      "rädd": 8125,
      "##olag": 8126,
      "Esp": 8127,
      "Gamla": 8128,
      "mär": 8129,
      "Ost": 8130,
      "##efte": 8131,
      "inbörd": 8132,
      "##ekonom": 8133,
      "Sib": 8134,
      "Svensk": 8135,
      "Lakes": 8136,
      "Åland": 8137,
      "anställd": 8138,
      "cal": 8139,
      "nedan": 8140,
      "anord": 8141,
      "Lé": 8142,
      "avb": 8143,
      "org": 8144,
      "Oh": 8145,
      "##ians": 8146,
      "##ūl": 8147,
      "States": 8148,
      "##orts": 8149,
      "medeltiden": 8150,
      "##ocer": 8151,
      "Totalt": 8152,
      "##duras": 8153,
      "Prix": 8154,
      "alk": 8155,
      "Victor": 8156,
      "Breuning": 8157,
      "Theodor": 8158,
      "Yo": 8159,
      "Colonia": 8160,
      "Monten": 8161,
      "internationellt": 8162,
      "upplev": 8163,
      "museet": 8164,
      "##icolor": 8165,
      "Republika": 8166,
      "##sund": 8167,
      "##aki": 8168,
      "Dicran": 8169,
      "styrk": 8170,
      "officer": 8171,
      "rovflugor": 8172,
      "Ki": 8173,
      "moss": 8174,
      "Honduras": 8175,
      "svär": 8176,
      "kunskap": 8177,
      "kro": 8178,
      "vård": 8179,
      "##iki": 8180,
      "##aja": 8181,
      "kast": 8182,
      "##ance": 8183,
      "##rollen": 8184,
      "mig": 8185,
      "hind": 8186,
      "säl": 8187,
      "Riks": 8188,
      "lade": 8189,
      "##emia": 8190,
      "##ophaga": 8191,
      "##ocarpus": 8192,
      "##organisation": 8193,
      "##ows": 8194,
      "advok": 8195,
      "##slin": 8196,
      "Brad": 8197,
      "##vatten": 8198,
      "lys": 8199,
      "Love": 8200,
      "##rec": 8201,
      "snö": 8202,
      "påst": 8203,
      "grac": 8204,
      "##asi": 8205,
      "bolaget": 8206,
      "gram": 8207,
      "Star": 8208,
      "skogs": 8209,
      "Deb": 8210,
      "öd": 8211,
      "Tizi": 8212,
      "enhjärtbladig": 8213,
      "Mell": 8214,
      "##ömet": 8215,
      "anklag": 8216,
      "Srpska": 8217,
      "sonen": 8218,
      "##fören": 8219,
      "##unct": 8220,
      "##ymen": 8221,
      "Ges": 8222,
      "elever": 8223,
      "princip": 8224,
      "arg": 8225,
      "Byggnaden": 8226,
      "avanc": 8227,
      "##arbete": 8228,
      "centimeter": 8229,
      "studioalbum": 8230,
      "##hör": 8231,
      "Tappeh": 8232,
      "omfattning": 8233,
      "Clark": 8234,
      "Beg": 8235,
      "Dong": 8236,
      "##apest": 8237,
      "Fru": 8238,
      "##smat": 8239,
      "##estivalen": 8240,
      "utst": 8241,
      "Svart": 8242,
      "##lle": 8243,
      "##onius": 8244,
      "Västerg": 8245,
      "Värmland": 8246,
      "landst": 8247,
      "##oslav": 8248,
      "##delningen": 8249,
      "##ären": 8250,
      "Colombo": 8251,
      "Et": 8252,
      "##olph": 8253,
      "##amar": 8254,
      "##rica": 8255,
      "döda": 8256,
      "Pic": 8257,
      "##hets": 8258,
      "upplöst": 8259,
      "##py": 8260,
      "Budapest": 8261,
      "kejsar": 8262,
      "##omyza": 8263,
      "sidor": 8264,
      "Led": 8265,
      "##ique": 8266,
      "Hamb": 8267,
      "världs": 8268,
      "##valet": 8269,
      "fråga": 8270,
      "##aville": 8271,
      "Inför": 8272,
      "Norm": 8273,
      "nr": 8274,
      "##sberg": 8275,
      "vand": 8276,
      "Cle": 8277,
      "dekor": 8278,
      "Låt": 8279,
      "administrativa": 8280,
      "##slagen": 8281,
      "nämnas": 8282,
      "##itta": 8283,
      "##idion": 8284,
      "mont": 8285,
      "##sgatan": 8286,
      "Rev": 8287,
      "Guyana": 8288,
      "verket": 8289,
      "regemente": 8290,
      "Djib": 8291,
      "##bilis": 8292,
      "beskriver": 8293,
      "Hap": 8294,
      "App": 8295,
      "##acka": 8296,
      "##oneura": 8297,
      "lut": 8298,
      "##änk": 8299,
      "##arab": 8300,
      "Glavica": 8301,
      "lägger": 8302,
      "##irig": 8303,
      "minor": 8304,
      "sjukhus": 8305,
      "American": 8306,
      "Shuiku": 8307,
      "Hur": 8308,
      "##hi": 8309,
      "##aric": 8310,
      "##fal": 8311,
      "soldater": 8312,
      "Bengt": 8313,
      "##sko": 8314,
      "gränsar": 8315,
      "total": 8316,
      "aktiva": 8317,
      "varefter": 8318,
      "Filippinerna": 8319,
      "##iserade": 8320,
      "berättar": 8321,
      "##istik": 8322,
      "max": 8323,
      "gra": 8324,
      "##bandet": 8325,
      "##server": 8326,
      "inb": 8327,
      "timmar": 8328,
      "forsknings": 8329,
      "##elli": 8330,
      "##ādī": 8331,
      "##idaceae": 8332,
      "Kenya": 8333,
      "##ningens": 8334,
      "Haw": 8335,
      "##skiftet": 8336,
      "##åningom": 8337,
      "##produkt": 8338,
      "stopp": 8339,
      "användning": 8340,
      "##quist": 8341,
      "##epec": 8342,
      "gett": 8343,
      "##skil": 8344,
      "synner": 8345,
      "##emen": 8346,
      "Bet": 8347,
      "Elfenb": 8348,
      "Para": 8349,
      "politiskt": 8350,
      "##nah": 8351,
      "Dahl": 8352,
      "sa": 8353,
      "konkurr": 8354,
      "##ese": 8355,
      "medverkat": 8356,
      "riv": 8357,
      "stick": 8358,
      "##jar": 8359,
      "##eppar": 8360,
      "##perm": 8361,
      "##rest": 8362,
      "##lie": 8363,
      "##rosophila": 8364,
      "Tyr": 8365,
      "intill": 8366,
      "last": 8367,
      "Petter": 8368,
      "Virg": 8369,
      "skivan": 8370,
      "##alism": 8371,
      "##ingenjör": 8372,
      "##ätte": 8373,
      "Guang": 8374,
      "småningom": 8375,
      "Elfenbensk": 8376,
      "##num": 8377,
      "status": 8378,
      "##ovi": 8379,
      "##asta": 8380,
      "She": 8381,
      "##ahan": 8382,
      "School": 8383,
      "##förbund": 8384,
      "Brazz": 8385,
      "Johnson": 8386,
      "##ental": 8387,
      "koncent": 8388,
      "Morne": 8389,
      "Israel": 8390,
      "beford": 8391,
      "slottet": 8392,
      "Euc": 8393,
      "##ivan": 8394,
      "Mir": 8395,
      "##icip": 8396,
      "otillräckligt": 8397,
      "satte": 8398,
      "##irat": 8399,
      "kyrkans": 8400,
      "##occus": 8401,
      "öppnades": 8402,
      "akadem": 8403,
      "glest": 8404,
      "utnytt": 8405,
      "##sakademien": 8406,
      "Aut": 8407,
      "Ever": 8408,
      "föreningen": 8409,
      "revs": 8410,
      "Tw": 8411,
      "##pur": 8412,
      "vänd": 8413,
      "Montenegro": 8414,
      "storm": 8415,
      "röda": 8416,
      "##alum": 8417,
      "##yllis": 8418,
      "Ri": 8419,
      "studera": 8420,
      "##ärer": 8421,
      "korta": 8422,
      "sammanhang": 8423,
      "pension": 8424,
      "Linköping": 8425,
      "Lat": 8426,
      "##yrus": 8427,
      "##viken": 8428,
      "uppror": 8429,
      "Peru": 8430,
      "Brazzaville": 8431,
      "Him": 8432,
      "buk": 8433,
      "Abra": 8434,
      "Mang": 8435,
      "ok": 8436,
      "##skt": 8437,
      "fien": 8438,
      "Djibouti": 8439,
      "Tap": 8440,
      "elektron": 8441,
      "makten": 8442,
      "##su": 8443,
      "##estan": 8444,
      "##etiska": 8445,
      "##iformis": 8446,
      "Herrarnas": 8447,
      "##tah": 8448,
      "##ademi": 8449,
      "Mynnar": 8450,
      "styltflugor": 8451,
      "Ala": 8452,
      "##éd": 8453,
      "källor": 8454,
      "Lem": 8455,
      "Elfenbenskusten": 8456,
      "Eriksson": 8457,
      "helg": 8458,
      "Tir": 8459,
      "ving": 8460,
      "##usch": 8461,
      "##ensus": 8462,
      "Sīāh": 8463,
      "##vor": 8464,
      "gruv": 8465,
      "beläget": 8466,
      "Kenn": 8467,
      "Hard": 8468,
      "utgivet": 8469,
      "Wa": 8470,
      "förrän": 8471,
      "##umenter": 8472,
      "huvudort": 8473,
      "psalm": 8474,
      "Nan": 8475,
      "Distriktet": 8476,
      "##dalen": 8477,
      "slav": 8478,
      "Boken": 8479,
      "elev": 8480,
      "efterträddes": 8481,
      "menade": 8482,
      "Baker": 8483,
      "##längd": 8484,
      "biograf": 8485,
      "fjädermyggor": 8486,
      "övre": 8487,
      "renover": 8488,
      "##bury": 8489,
      "syftar": 8490,
      "##oun": 8491,
      "katolska": 8492,
      "##gers": 8493,
      "Kle": 8494,
      "leda": 8495,
      "##āq": 8496,
      "Innan": 8497,
      "areal": 8498,
      "Stäppklimat": 8499,
      "don": 8500,
      "##col": 8501,
      "##bul": 8502,
      "##hoven": 8503,
      "Num": 8504,
      "cap": 8505,
      "Moore": 8506,
      "##sfisk": 8507,
      "Kas": 8508,
      "fungerar": 8509,
      "orm": 8510,
      "Sid": 8511,
      "Anne": 8512,
      "Skärgård": 8513,
      "##styrelsen": 8514,
      "Hos": 8515,
      "##allet": 8516,
      "##unna": 8517,
      "minnes": 8518,
      "vårtbitare": 8519,
      "gräshoppor": 8520,
      "någonsin": 8521,
      "##ularia": 8522,
      "mil": 8523,
      "Orth": 8524,
      "Referenser": 8525,
      "plat": 8526,
      "##minstone": 8527,
      "Gram": 8528,
      "internationell": 8529,
      "landslaget": 8530,
      "ranunk": 8531,
      "studerad": 8532,
      "##spart": 8533,
      "Sach": 8534,
      "dött": 8535,
      "##ellidae": 8536,
      "##rål": 8537,
      "Cyper": 8538,
      "Club": 8539,
      "turk": 8540,
      "Die": 8541,
      "##test": 8542,
      "rysk": 8543,
      "teknik": 8544,
      "##ave": 8545,
      "arke": 8546,
      "Territ": 8547,
      "Nem": 8548,
      "##eni": 8549,
      "##ryth": 8550,
      "##inidae": 8551,
      "accep": 8552,
      "##samheten": 8553,
      "##beroende": 8554,
      "##ioides": 8555,
      "ens": 8556,
      "##oglossum": 8557,
      "fynd": 8558,
      "##sy": 8559,
      "##valt": 8560,
      "drev": 8561,
      "##āy": 8562,
      "ämnen": 8563,
      "Jul": 8564,
      "Olsson": 8565,
      "linje": 8566,
      "##cit": 8567,
      "##äckte": 8568,
      "co": 8569,
      "gräv": 8570,
      "##tex": 8571,
      "Onth": 8572,
      "origin": 8573,
      "Dy": 8574,
      "exped": 8575,
      "##ocke": 8576,
      "##delar": 8577,
      "##ssätt": 8578,
      "korall": 8579,
      "romerska": 8580,
      "##holmen": 8581,
      "lac": 8582,
      "##ingham": 8583,
      "kroppen": 8584,
      "##gär": 8585,
      "Ky": 8586,
      "utgiven": 8587,
      "Gilbert": 8588,
      "##ede": 8589,
      "##kommande": 8590,
      "refor": 8591,
      "##polit": 8592,
      "##skij": 8593,
      "##inda": 8594,
      "döp": 8595,
      "Music": 8596,
      "hemm": 8597,
      "Camb": 8598,
      "hälften": 8599,
      "redaktör": 8600,
      "Marc": 8601,
      "organisationen": 8602,
      "flagg": 8603,
      "interv": 8604,
      "##daf": 8605,
      "##efteå": 8606,
      "brom": 8607,
      "##elj": 8608,
      "##ikern": 8609,
      "Mim": 8610,
      "##arra": 8611,
      "##sköldlöss": 8612,
      "tyck": 8613,
      "##skrivning": 8614,
      "##inas": 8615,
      "storstads": 8616,
      "##platser": 8617,
      "##mun": 8618,
      "es": 8619,
      "vall": 8620,
      "##ussen": 8621,
      "Tipula": 8622,
      "Boul": 8623,
      "Lah": 8624,
      "Wilson": 8625,
      "slå": 8626,
      "##orit": 8627,
      "prop": 8628,
      "Nag": 8629,
      "##arv": 8630,
      "tillfällen": 8631,
      "Vikt": 8632,
      "kvalific": 8633,
      "Jones": 8634,
      "##hal": 8635,
      "Walter": 8636,
      "Kom": 8637,
      "litet": 8638,
      "##uppg": 8639,
      "motiv": 8640,
      "Asien": 8641,
      "Viet": 8642,
      "hämt": 8643,
      "allmänt": 8644,
      "Bow": 8645,
      "##älje": 8646,
      "Knut": 8647,
      "Trans": 8648,
      "vänner": 8649,
      "tillämp": 8650,
      "##azat": 8651,
      "##phia": 8652,
      "normalt": 8653,
      "Day": 8654,
      "##skåd": 8655,
      "Reyk": 8656,
      "IFK": 8657,
      "Lyc": 8658,
      "sade": 8659,
      "Poly": 8660,
      "Nordamerika": 8661,
      "##itekten": 8662,
      "egenskaper": 8663,
      "tas": 8664,
      "##okal": 8665,
      "##kropp": 8666,
      "Kot": 8667,
      "Bagdad": 8668,
      "##rare": 8669,
      "Inter": 8670,
      "kortare": 8671,
      "##arrist": 8672,
      "Opsjtina": 8673,
      "tättingar": 8674,
      "##grupper": 8675,
      "Taung": 8676,
      "pen": 8677,
      "Föreningen": 8678,
      "Cay": 8679,
      "##provinsen": 8680,
      "##iets": 8681,
      "Barcel": 8682,
      "Skärgårdshavet": 8683,
      "##ensson": 8684,
      "##läkare": 8685,
      "##ställningar": 8686,
      "##nem": 8687,
      "konstru": 8688,
      "sök": 8689,
      "##edia": 8690,
      "##agare": 8691,
      "##latsen": 8692,
      "Mik": 8693,
      "kalk": 8694,
      "anim": 8695,
      "trö": 8696,
      "ått": 8697,
      "Kaj": 8698,
      "Ukra": 8699,
      "hyll": 8700,
      "Akt": 8701,
      "tillbring": 8702,
      "kloster": 8703,
      "puck": 8704,
      "##edonien": 8705,
      "Puerto": 8706,
      "Uttar": 8707,
      "Gor": 8708,
      "magnitud": 8709,
      "Lis": 8710,
      "Bam": 8711,
      "Frit": 8712,
      "##AS": 8713,
      "salt": 8714,
      "##ithe": 8715,
      "##pass": 8716,
      "gas": 8717,
      "##edon": 8718,
      "spekt": 8719,
      "närvarande": 8720,
      "köptes": 8721,
      "##museum": 8722,
      "Zar": 8723,
      "tillräckligt": 8724,
      "Chen": 8725,
      "##illiga": 8726,
      "kvart": 8727,
      "influ": 8728,
      "peppar": 8729,
      "bon": 8730,
      "avslöj": 8731,
      "Esc": 8732,
      "##jas": 8733,
      "##shöv": 8734,
      "##fart": 8735,
      "##rerade": 8736,
      "kommers": 8737,
      "Adam": 8738,
      "skriver": 8739,
      "##gi": 8740,
      "utvecklingen": 8741,
      "##itioner": 8742,
      "##ränd": 8743,
      "Va": 8744,
      "##nus": 8745,
      "##vide": 8746,
      "Tit": 8747,
      "##ône": 8748,
      "Williams": 8749,
      "systemet": 8750,
      "##afazat": 8751,
      "Mohafazat": 8752,
      "Ans": 8753,
      "##inis": 8754,
      "Christoph": 8755,
      "##vård": 8756,
      "Kamar": 8757,
      "##ual": 8758,
      "##osum": 8759,
      "potatis": 8760,
      "est": 8761,
      "kil": 8762,
      "Pha": 8763,
      "Tob": 8764,
      "##rell": 8765,
      "trett": 8766,
      "pan": 8767,
      "blomm": 8768,
      "tan": 8769,
      "takt": 8770,
      "Astra": 8771,
      "Fir": 8772,
      "drift": 8773,
      "Klubben": 8774,
      "Beach": 8775,
      "Texas": 8776,
      "versionen": 8777,
      "beslutade": 8778,
      "Qal": 8779,
      "Ayn": 8780,
      "cell": 8781,
      "sällan": 8782,
      "##ākh": 8783,
      "Jär": 8784,
      "##bu": 8785,
      "##rateg": 8786,
      "kyrkob": 8787,
      "slätt": 8788,
      "papper": 8789,
      "##båt": 8790,
      "Västergötland": 8791,
      "Alberta": 8792,
      "kg": 8793,
      "krets": 8794,
      "##onte": 8795,
      "Organ": 8796,
      "Care": 8797,
      "tids": 8798,
      "syns": 8799,
      "Wang": 8800,
      "##kontor": 8801,
      "uppstod": 8802,
      "##ischer": 8803,
      "underhåll": 8804,
      "integ": 8805,
      "##ardi": 8806,
      "vul": 8807,
      "objekt": 8808,
      "Gruppen": 8809,
      "##viks": 8810,
      "täcker": 8811,
      "påträffats": 8812,
      "lov": 8813,
      "##mossor": 8814,
      "adel": 8815,
      "ägs": 8816,
      "giv": 8817,
      "tons": 8818,
      "definier": 8819,
      "##icia": 8820,
      "##ouz": 8821,
      "Portug": 8822,
      "sattes": 8823,
      "Reykjav": 8824,
      "##yna": 8825,
      "##strä": 8826,
      "rekord": 8827,
      "Rem": 8828,
      "##odendron": 8829,
      "aur": 8830,
      "styrelse": 8831,
      "Kultur": 8832,
      "##ourt": 8833,
      "mass": 8834,
      "##ehåll": 8835,
      "reakt": 8836,
      "Sap": 8837,
      "Vetenskap": 8838,
      "vol": 8839,
      "##albumet": 8840,
      "förde": 8841,
      "Kos": 8842,
      "utgå": 8843,
      "Seb": 8844,
      "visades": 8845,
      "##språkiga": 8846,
      "##inte": 8847,
      "##aure": 8848,
      "##eve": 8849,
      "oleanderväxter": 8850,
      "lek": 8851,
      "tegel": 8852,
      "genombrott": 8853,
      "klassiska": 8854,
      "Center": 8855,
      "##dat": 8856,
      "##enan": 8857,
      "##rörelsen": 8858,
      "Bulb": 8859,
      "nejlik": 8860,
      "Onthophagus": 8861,
      "##rem": 8862,
      "Kent": 8863,
      "Run": 8864,
      "##jak": 8865,
      "##hjäl": 8866,
      "##ulic": 8867,
      "Sir": 8868,
      "framförallt": 8869,
      "ärk": 8870,
      "stjärna": 8871,
      "framgångar": 8872,
      "##chus": 8873,
      "Nyland": 8874,
      "bidrog": 8875,
      "##priset": 8876,
      "spelaren": 8877,
      "##lid": 8878,
      "systematik": 8879,
      "##örtsväxter": 8880,
      "botten": 8881,
      "Oz": 8882,
      "##ionde": 8883,
      "##ytan": 8884,
      "förel": 8885,
      "delades": 8886,
      "##orpor": 8887,
      "separ": 8888,
      "bevarade": 8889,
      "dos": 8890,
      "##row": 8891,
      "liknar": 8892,
      "##rock": 8893,
      "##essa": 8894,
      "åtminstone": 8895,
      "framåt": 8896,
      "Lö": 8897,
      "##anuel": 8898,
      "ägnade": 8899,
      "delta": 8900,
      "levande": 8901,
      "Hampson": 8902,
      "##ossa": 8903,
      "förkort": 8904,
      "konsert": 8905,
      "ligan": 8906,
      "Str": 8907,
      "##hel": 8908,
      "##atiska": 8909,
      "Engel": 8910,
      "Hälsing": 8911,
      "tillhörande": 8912,
      "##örs": 8913,
      "Wik": 8914,
      "Vän": 8915,
      "tab": 8916,
      "EP": 8917,
      "tredj": 8918,
      "Aur": 8919,
      "##havare": 8920,
      "Statens": 8921,
      "Kj": 8922,
      "tecken": 8923,
      "artister": 8924,
      "dömdes": 8925,
      "##smiljö": 8926,
      "##lech": 8927,
      "##opogon": 8928,
      "graf": 8929,
      "mynnar": 8930,
      "Mand": 8931,
      "placerade": 8932,
      "australi": 8933,
      "sammanlagt": 8934,
      "Philipp": 8935,
      "Hob": 8936,
      "##unkten": 8937,
      "##tor": 8938,
      "##bom": 8939,
      "Gull": 8940,
      "##illverk": 8941,
      "yttre": 8942,
      "kinesiska": 8943,
      "##skade": 8944,
      "Internationella": 8945,
      "##anensis": 8946,
      "##ylon": 8947,
      "Dich": 8948,
      "närmast": 8949,
      "##ovac": 8950,
      "##oar": 8951,
      "##neum": 8952,
      "erk": 8953,
      "Pedro": 8954,
      "Jonas": 8955,
      "Chicago": 8956,
      "dyg": 8957,
      "##ionerna": 8958,
      "##iste": 8959,
      "##sand": 8960,
      "goda": 8961,
      "hjärt": 8962,
      "element": 8963,
      "passager": 8964,
      "##bal": 8965,
      "##zia": 8966,
      "##wer": 8967,
      "SK": 8968,
      "##āv": 8969,
      "rättigheter": 8970,
      "Tem": 8971,
      "metod": 8972,
      "upplöstes": 8973,
      "##rer": 8974,
      "viol": 8975,
      "##gårds": 8976,
      "anser": 8977,
      "tillverkades": 8978,
      "##uka": 8979,
      "##aran": 8980,
      "##sök": 8981,
      "##imir": 8982,
      "Gymn": 8983,
      "varia": 8984,
      "event": 8985,
      "stå": 8986,
      "##ledes": 8987,
      "attack": 8988,
      "tax": 8989,
      "utseende": 8990,
      "Had": 8991,
      "hyp": 8992,
      "kommiss": 8993,
      "fiskar": 8994,
      "AIK": 8995,
      "ved": 8996,
      "astronom": 8997,
      "##urer": 8998,
      "##iculata": 8999,
      "Ins": 9000,
      "##smedel": 9001,
      "##vapen": 9002,
      "Vlad": 9003,
      "Ay": 9004,
      "##vårds": 9005,
      "##rap": 9006,
      "Kef": 9007,
      "traditionella": 9008,
      "##mers": 9009,
      "näbb": 9010,
      "##ako": 9011,
      "vanligaste": 9012,
      "##rie": 9013,
      "##ssystem": 9014,
      "Sundsvall": 9015,
      "##ulosa": 9016,
      "fläck": 9017,
      "##ai": 9018,
      "Harry": 9019,
      "FF": 9020,
      "horn": 9021,
      "##kul": 9022,
      "##onotus": 9023,
      "Landkreis": 9024,
      "Bandet": 9025,
      "Fot": 9026,
      "dim": 9027,
      "##ylind": 9028,
      "##horn": 9029,
      "Gill": 9030,
      "bomb": 9031,
      "schw": 9032,
      "behandling": 9033,
      "##usin": 9034,
      "Mine": 9035,
      "Havanna": 9036,
      "##odia": 9037,
      "Pand": 9038,
      "svans": 9039,
      "verkställ": 9040,
      "fader": 9041,
      "Natura": 9042,
      "gott": 9043,
      "##sal": 9044,
      "##isering": 9045,
      "lilla": 9046,
      "Chal": 9047,
      "##ryss": 9048,
      "Rein": 9049,
      "pastorat": 9050,
      "##erner": 9051,
      "bröst": 9052,
      "Året": 9053,
      "inbörde": 9054,
      "##igalpa": 9055,
      "folkräkningen": 9056,
      "rank": 9057,
      "front": 9058,
      "Finska": 9059,
      "nödvänd": 9060,
      "##ción": 9061,
      "##ospora": 9062,
      "föll": 9063,
      "##ydde": 9064,
      "gjord": 9065,
      "tung": 9066,
      "polska": 9067,
      "bib": 9068,
      "Cath": 9069,
      "Fors": 9070,
      "##elsens": 9071,
      "Za": 9072,
      "spets": 9073,
      "sekreterare": 9074,
      "##opet": 9075,
      "##sledamot": 9076,
      "inc": 9077,
      "Norrköping": 9078,
      "##nens": 9079,
      "##occ": 9080,
      "kyrkoher": 9081,
      "ax": 9082,
      "##bon": 9083,
      "olyck": 9084,
      "Robin": 9085,
      "Cord": 9086,
      "General": 9087,
      "fing": 9088,
      "kontor": 9089,
      "Södert": 9090,
      "Cours": 9091,
      "##yne": 9092,
      "Bap": 9093,
      "##odell": 9094,
      "Lule": 9095,
      "Dipl": 9096,
      "##äkring": 9097,
      "##alla": 9098,
      "Halm": 9099,
      "##stens": 9100,
      "bildas": 9101,
      "##bladet": 9102,
      "##kins": 9103,
      "damm": 9104,
      "socknen": 9105,
      "Levu": 9106,
      "Bohus": 9107,
      "##oriet": 9108,
      "##ostoma": 9109,
      "kväll": 9110,
      "Brom": 9111,
      "##ople": 9112,
      "tidig": 9113,
      "##rädande": 9114,
      "##skrig": 9115,
      "Lek": 9116,
      "beror": 9117,
      "Vik": 9118,
      "##bes": 9119,
      "##faren": 9120,
      "##smakten": 9121,
      "##ucigalpa": 9122,
      "sats": 9123,
      "Tegucigalpa": 9124,
      "##figur": 9125,
      "kommunhuvudort": 9126,
      "Gabriel": 9127,
      "##lán": 9128,
      "##inst": 9129,
      "tank": 9130,
      "Grund": 9131,
      "Pav": 9132,
      "##industri": 9133,
      "my": 9134,
      "skivbolaget": 9135,
      "gallmyggor": 9136,
      "##anni": 9137,
      "##agor": 9138,
      "nordiska": 9139,
      "Reich": 9140,
      "Roll": 9141,
      "##kas": 9142,
      "##ils": 9143,
      "länkar": 9144,
      "Först": 9145,
      "Norden": 9146,
      "##uy": 9147,
      "förmod": 9148,
      "position": 9149,
      "##klä": 9150,
      "samlade": 9151,
      "##nämnda": 9152,
      "##ume": 9153,
      "bekräft": 9154,
      "Källor": 9155,
      "Trip": 9156,
      "##get": 9157,
      "Frederick": 9158,
      "Lagoa": 9159,
      "##amål": 9160,
      "ordning": 9161,
      "efterträdde": 9162,
      "känneteck": 9163,
      "##edagog": 9164,
      "fönster": 9165,
      "hörde": 9166,
      "betal": 9167,
      "Mål": 9168,
      "hed": 9169,
      "##förord": 9170,
      "Ring": 9171,
      "Int": 9172,
      "Wat": 9173,
      "##oten": 9174,
      "abs": 9175,
      "##inalen": 9176,
      "Maja": 9177,
      "##rypare": 9178,
      "framgångsrika": 9179,
      "Cten": 9180,
      "##karriär": 9181,
      "intervju": 9182,
      "Eurov": 9183,
      "Nuuk": 9184,
      "Rac": 9185,
      "Rica": 9186,
      "##mät": 9187,
      "Sydaf": 9188,
      "häls": 9189,
      "##pol": 9190,
      "Schiz": 9191,
      "##umin": 9192,
      "Växjö": 9193,
      "Ned": 9194,
      "Alt": 9195,
      "bröt": 9196,
      "##meter": 9197,
      "Leg": 9198,
      "##ls": 9199,
      "fortsätta": 9200,
      "således": 9201,
      "##irektör": 9202,
      "##oft": 9203,
      "finländska": 9204,
      "projektet": 9205,
      "##kända": 9206,
      "Guld": 9207,
      "banan": 9208,
      "cer": 9209,
      "artist": 9210,
      "anges": 9211,
      "inträff": 9212,
      "avst": 9213,
      "##ubliken": 9214,
      "starka": 9215,
      "Dry": 9216,
      "him": 9217,
      "##aza": 9218,
      "bedöm": 9219,
      "anslutning": 9220,
      "sent": 9221,
      "##program": 9222,
      "##oen": 9223,
      "##itj": 9224,
      "Estland": 9225,
      "vive": 9226,
      "Prim": 9227,
      "vån": 9228,
      "flykt": 9229,
      "##skjut": 9230,
      "##världen": 9231,
      "Pereval": 9232,
      "##ocker": 9233,
      "##amus": 9234,
      "färger": 9235,
      "ändrades": 9236,
      "##oleon": 9237,
      "##enbar": 9238,
      "##oloph": 9239,
      "##athan": 9240,
      "kop": 9241,
      "etn": 9242,
      "##omataceae": 9243,
      "studenter": 9244,
      "Cycl": 9245,
      "Lamp": 9246,
      "##rekt": 9247,
      "##rafiken": 9248,
      "besegrade": 9249,
      "mekan": 9250,
      "##manlands": 9251,
      "kommunreformen": 9252,
      "##tiste": 9253,
      "##ophorus": 9254,
      "advokat": 9255,
      "##rats": 9256,
      "##ställningen": 9257,
      "handboll": 9258,
      "Tekniska": 9259,
      "artiklar": 9260,
      "Baptiste": 9261,
      "Kvar": 9262,
      "söner": 9263,
      "torp": 9264,
      "tvåa": 9265,
      "spelen": 9266,
      "##ungfru": 9267,
      "Say": 9268,
      "##ilton": 9269,
      "##antin": 9270,
      "utför": 9271,
      "Franska": 9272,
      "yrkes": 9273,
      "Podgor": 9274,
      "Kum": 9275,
      "##örn": 9276,
      "grunden": 9277,
      "abb": 9278,
      "##wald": 9279,
      "Centre": 9280,
      "hom": 9281,
      "uppmärksamhet": 9282,
      "Müller": 9283,
      "Tow": 9284,
      "##smän": 9285,
      "skogar": 9286,
      "regionhuvudstaden": 9287,
      "##iceps": 9288,
      "##ligaste": 9289,
      "##föreningen": 9290,
      "##wall": 9291,
      "Bureau": 9292,
      "Bes": 9293,
      "Fars": 9294,
      "##elsef": 9295,
      "Ec": 9296,
      "##amouss": 9297,
      "Podgorica": 9298,
      "##byn": 9299,
      "överst": 9300,
      "##livet": 9301,
      "karriären": 9302,
      "##oukro": 9303,
      "Pris": 9304,
      "##ssel": 9305,
      "tvåvingar": 9306,
      "Ot": 9307,
      "Tav": 9308,
      "##olep": 9309,
      "lämp": 9310,
      "analys": 9311,
      "Dip": 9312,
      "##elidae": 9313,
      "utbredning": 9314,
      "##ās": 9315,
      "opp": 9316,
      "##imen": 9317,
      "##institut": 9318,
      "Ingen": 9319,
      "Rhe": 9320,
      "Yamouss": 9321,
      "##industrin": 9322,
      "Prot": 9323,
      "##folk": 9324,
      "##sättningar": 9325,
      "##iser": 9326,
      "Yamoussoukro": 9327,
      "das": 9328,
      "Gri": 9329,
      "Vä": 9330,
      "##owr": 9331,
      "##ifik": 9332,
      "##män": 9333,
      "##mund": 9334,
      "##asen": 9335,
      "punct": 9336,
      "Pur": 9337,
      "##bourne": 9338,
      "föred": 9339,
      "hål": 9340,
      "bladhorningar": 9341,
      "Barcelona": 9342,
      "##ackerlack": 9343,
      "Museum": 9344,
      "Philip": 9345,
      "##ove": 9346,
      "bokst": 9347,
      "Gam": 9348,
      "##ball": 9349,
      "##edal": 9350,
      "syr": 9351,
      "##ittén": 9352,
      "Nich": 9353,
      "##ifrons": 9354,
      "##ogne": 9355,
      "slags": 9356,
      "##dell": 9357,
      "ambassad": 9358,
      "Liber": 9359,
      "##mande": 9360,
      "##abel": 9361,
      "nationalp": 9362,
      "Pra": 9363,
      "hårt": 9364,
      "Jr": 9365,
      "fåglar": 9366,
      "##ury": 9367,
      "Stig": 9368,
      "Gold": 9369,
      "modeller": 9370,
      "Blek": 9371,
      "Cô": 9372,
      "utbildade": 9373,
      "Bonn": 9374,
      "##orre": 9375,
      "frågan": 9376,
      "Beet": 9377,
      "visat": 9378,
      "Polyp": 9379,
      "Dios": 9380,
      "konser": 9381,
      "begreppet": 9382,
      "Socknen": 9383,
      "Gardan": 9384,
      "Bib": 9385,
      "oberoende": 9386,
      "syss": 9387,
      "Ble": 9388,
      "Troll": 9389,
      "borger": 9390,
      "##hou": 9391,
      "diplomat": 9392,
      "hästar": 9393,
      "Ok": 9394,
      "Janeiro": 9395,
      "massa": 9396,
      "religiösa": 9397,
      "Eurovision": 9398,
      "##abet": 9399,
      "##ventyr": 9400,
      "Lys": 9401,
      "##acia": 9402,
      "ritningar": 9403,
      "eau": 9404,
      "Anom": 9405,
      "oleanderväxtart": 9406,
      "disc": 9407,
      "##oridae": 9408,
      "naz": 9409,
      "frist": 9410,
      "##krig": 9411,
      "Andreas": 9412,
      "radi": 9413,
      "##litt": 9414,
      "##hamns": 9415,
      "jazz": 9416,
      "Thom": 9417,
      "begravd": 9418,
      "Rel": 9419,
      "##ope": 9420,
      "##oke": 9421,
      "efterfölj": 9422,
      "##systemet": 9423,
      "blomflugor": 9424,
      "Dim": 9425,
      "Lut": 9426,
      "##ckerna": 9427,
      "##skomm": 9428,
      "Järnväg": 9429,
      "tror": 9430,
      "hitta": 9431,
      "Falk": 9432,
      "Eva": 9433,
      "##vari": 9434,
      "##isj": 9435,
      "##litter": 9436,
      "gar": 9437,
      "greve": 9438,
      "mötte": 9439,
      "Din": 9440,
      "Nev": 9441,
[...]
